{
  "version": "1.0",
  "truncation": null,
  "padding": null,
  "added_tokens": [
    {
      "id": 0,
      "content": "[UNK]",
      "single_word": false,
      "lstrip": false,
      "rstrip": false,
      "normalized": false,
      "special": true
    },
    {
      "id": 1,
      "content": "[PAD]",
      "single_word": false,
      "lstrip": false,
      "rstrip": false,
      "normalized": false,
      "special": true
    },
    {
      "id": 2,
      "content": "[SOS]",
      "single_word": false,
      "lstrip": false,
      "rstrip": false,
      "normalized": false,
      "special": true
    },
    {
      "id": 3,
      "content": "[EOS]",
      "single_word": false,
      "lstrip": false,
      "rstrip": false,
      "normalized": false,
      "special": true
    }
  ],
  "normalizer": null,
  "pre_tokenizer": {
    "type": "Whitespace"
  },
  "post_processor": null,
  "decoder": null,
  "model": {
    "type": "BPE",
    "dropout": null,
    "unk_token": "[UNK]",
    "continuing_subword_prefix": null,
    "end_of_word_suffix": null,
    "fuse_unk": false,
    "byte_fallback": false,
    "ignore_merges": false,
    "vocab": {
      "[UNK]": 0,
      "[PAD]": 1,
      "[SOS]": 2,
      "[EOS]": 3,
      "!": 4,
      "\"": 5,
      "#": 6,
      "$": 7,
      "%": 8,
      "&": 9,
      "'": 10,
      "(": 11,
      ")": 12,
      "*": 13,
      "+": 14,
      ",": 15,
      "-": 16,
      ".": 17,
      "/": 18,
      "0": 19,
      "1": 20,
      "2": 21,
      "3": 22,
      "4": 23,
      "5": 24,
      "6": 25,
      "7": 26,
      "8": 27,
      "9": 28,
      ":": 29,
      ";": 30,
      "<": 31,
      "=": 32,
      ">": 33,
      "?": 34,
      "@": 35,
      "A": 36,
      "B": 37,
      "C": 38,
      "D": 39,
      "E": 40,
      "F": 41,
      "G": 42,
      "H": 43,
      "I": 44,
      "J": 45,
      "K": 46,
      "L": 47,
      "M": 48,
      "N": 49,
      "O": 50,
      "P": 51,
      "Q": 52,
      "R": 53,
      "S": 54,
      "T": 55,
      "U": 56,
      "V": 57,
      "W": 58,
      "X": 59,
      "Y": 60,
      "Z": 61,
      "[": 62,
      "\\": 63,
      "]": 64,
      "^": 65,
      "_": 66,
      "`": 67,
      "a": 68,
      "b": 69,
      "c": 70,
      "d": 71,
      "e": 72,
      "f": 73,
      "g": 74,
      "h": 75,
      "i": 76,
      "j": 77,
      "k": 78,
      "l": 79,
      "m": 80,
      "n": 81,
      "o": 82,
      "p": 83,
      "q": 84,
      "r": 85,
      "s": 86,
      "t": 87,
      "u": 88,
      "v": 89,
      "w": 90,
      "x": 91,
      "y": 92,
      "z": 93,
      "{": 94,
      "|": 95,
      "}": 96,
      "~": 97,
      "¡": 98,
      "¥": 99,
      "«": 100,
      "¬": 101,
      "®": 102,
      "°": 103,
      "´": 104,
      "·": 105,
      "º": 106,
      "¼": 107,
      "½": 108,
      "Ç": 109,
      "×": 110,
      "à": 111,
      "á": 112,
      "â": 113,
      "ã": 114,
      "ä": 115,
      "å": 116,
      "ç": 117,
      "è": 118,
      "é": 119,
      "ë": 120,
      "ì": 121,
      "í": 122,
      "î": 123,
      "ï": 124,
      "ñ": 125,
      "ò": 126,
      "ó": 127,
      "õ": 128,
      "ö": 129,
      "ù": 130,
      "ú": 131,
      "û": 132,
      "ü": 133,
      "ā": 134,
      "ă": 135,
      "ć": 136,
      "ė": 137,
      "ę": 138,
      "ě": 139,
      "ģ": 140,
      "ħ": 141,
      "ĩ": 142,
      "ī": 143,
      "į": 144,
      "ı": 145,
      "ķ": 146,
      "ļ": 147,
      "ł": 148,
      "ń": 149,
      "ņ": 150,
      "ň": 151,
      "ř": 152,
      "ś": 153,
      "ş": 154,
      "š": 155,
      "ţ": 156,
      "ū": 157,
      "ů": 158,
      "ű": 159,
      "Ÿ": 160,
      "ſ": 161,
      "ư": 162,
      "ș": 163,
      "ț": 164,
      "ɔ": 165,
      "ə": 166,
      "о": 167,
      "ँ": 168,
      "ं": 169,
      "ः": 170,
      "अ": 171,
      "आ": 172,
      "इ": 173,
      "ई": 174,
      "उ": 175,
      "ऊ": 176,
      "ऋ": 177,
      "ऎ": 178,
      "ए": 179,
      "ऐ": 180,
      "ऑ": 181,
      "ओ": 182,
      "औ": 183,
      "क": 184,
      "ख": 185,
      "ग": 186,
      "घ": 187,
      "ङ": 188,
      "च": 189,
      "छ": 190,
      "ज": 191,
      "झ": 192,
      "ञ": 193,
      "ट": 194,
      "ठ": 195,
      "ड": 196,
      "ढ": 197,
      "ण": 198,
      "त": 199,
      "थ": 200,
      "द": 201,
      "ध": 202,
      "न": 203,
      "ऩ": 204,
      "प": 205,
      "फ": 206,
      "ब": 207,
      "भ": 208,
      "म": 209,
      "य": 210,
      "र": 211,
      "ऱ": 212,
      "ल": 213,
      "ळ": 214,
      "व": 215,
      "श": 216,
      "ष": 217,
      "स": 218,
      "ह": 219,
      "़": 220,
      "ऽ": 221,
      "ा": 222,
      "ि": 223,
      "ी": 224,
      "ु": 225,
      "ू": 226,
      "ृ": 227,
      "ॄ": 228,
      "ॅ": 229,
      "ॆ": 230,
      "े": 231,
      "ै": 232,
      "ॉ": 233,
      "ॊ": 234,
      "ो": 235,
      "ौ": 236,
      "्": 237,
      "ॐ": 238,
      "॑": 239,
      "॒": 240,
      "॓": 241,
      "क़": 242,
      "ज़": 243,
      "ड़": 244,
      "ढ़": 245,
      "फ़": 246,
      "ॠ": 247,
      "।": 248,
      "॥": 249,
      "०": 250,
      "१": 251,
      "२": 252,
      "३": 253,
      "४": 254,
      "५": 255,
      "६": 256,
      "७": 257,
      "८": 258,
      "९": 259,
      "॰": 260,
      "ಅ": 261,
      "ಜ": 262,
      "ಥ": 263,
      "ಪ": 264,
      "ರ": 265,
      "ವ": 266,
      "ಸ": 267,
      "ಾ": 268,
      "ೇ": 269,
      "್": 270,
      "೦": 271,
      "ḥ": 272,
      "ṁ": 273,
      "ṇ": 274,
      "ṛ": 275,
      "ṣ": 276,
      "ạ": 277,
      "ả": 278,
      "ấ": 279,
      "ặ": 280,
      "ế": 281,
      "ệ": 282,
      "ỉ": 283,
      "ị": 284,
      "ọ": 285,
      "ộ": 286,
      "ụ": 287,
      "​": 288,
      "‌": 289,
      "‍": 290,
      "–": 291,
      "—": 292,
      "‘": 293,
      "’": 294,
      "“": 295,
      "”": 296,
      "„": 297,
      "•": 298,
      "…": 299,
      "›": 300,
      "₂": 301,
      "₄": 302,
      "₹": 303,
      "⅓": 304,
      "→": 305,
      "−": 306,
      "ⓡ": 307,
      "": 308,
      "？": 309,
      "th": 310,
      "the": 311,
      "\"\"": 312,
      "in": 313,
      "an": 314,
      "्य": 315,
      "re": 316,
      "्र": 317,
      "on": 318,
      "of": 319,
      "्त": 320,
      "at": 321,
      "is": 322,
      "er": 323,
      "ou": 324,
      "and": 325,
      "ed": 326,
      "ing": 327,
      "en": 328,
      "र्": 329,
      "ar": 330,
      "es": 331,
      "as": 332,
      "or": 333,
      "ान": 334,
      "al": 335,
      "to": 336,
      "्व": 337,
      "\"\"\"\"": 338,
      "se": 339,
      "\"\"\"": 340,
      "wi": 341,
      "ित": 342,
      "म्": 343,
      ".\"": 344,
      "प्र": 345,
      "it": 346,
      "le": 347,
      "ow": 348,
      "wh": 349,
      "be": 350,
      "त्": 351,
      "वि": 352,
      "ha": 353,
      "मा": 354,
      "ce": 355,
      "with": 356,
      "st": 357,
      "रा": 358,
      "ra": 359,
      "you": 360,
      "he": 361,
      "ति": 362,
      "om": 363,
      "न्": 364,
      "वा": 365,
      "स्य": 366,
      "क्": 367,
      "ch": 368,
      "स्त": 369,
      "ां": 370,
      "स्": 371,
      "ष्": 372,
      "न्त": 373,
      "ll": 374,
      "that": 375,
      "ri": 376,
      "ti": 377,
      "all": 378,
      "ते": 379,
      "्च": 380,
      "de": 381,
      "sh": 382,
      "ve": 383,
      "gh": 384,
      "li": 385,
      "ना": 386,
      "his": 387,
      "me": 388,
      "for": 389,
      "क्ष": 390,
      "sa": 391,
      "\"\"\"\"\"\"\"": 392,
      "by": 393,
      "ma": 394,
      "द्": 395,
      "ld": 396,
      "we": 397,
      "नि": 398,
      "ir": 399,
      "त्र": 400,
      "्या": 401,
      "या": 402,
      "un": 403,
      "ot": 404,
      "का": 405,
      "ent": 406,
      "hi": 407,
      "पा": 408,
      "श्च": 409,
      "ान्": 410,
      "मह": 411,
      "ly": 412,
      "ro": 413,
      "ver": 414,
      "ता": 415,
      "ad": 416,
      "are": 417,
      "्वा": 418,
      "ay": 419,
      "id": 420,
      "मि": 421,
      "था": 422,
      "us": 423,
      "ke": 424,
      "र्व": 425,
      "king": 426,
      "ct": 427,
      "fi": 428,
      "su": 429,
      "पु": 430,
      "ght": 431,
      "od": 432,
      "fo": 433,
      "who": 434,
      "पर": 435,
      "त्य": 436,
      "मे": 437,
      "सं": 438,
      "ther": 439,
      "सा": 440,
      "दा": 441,
      "ta": 442,
      "son": 443,
      "ul": 444,
      "this": 445,
      "ion": 446,
      "man": 447,
      "मु": 448,
      "one": 449,
      "सु": 450,
      "ष्ट": 451,
      "ess": 452,
      "ut": 453,
      "reat": 454,
      "ेन": 455,
      "ur": 456,
      "sp": 457,
      "ous": 458,
      "com": 459,
      "कृ": 460,
      "यु": 461,
      "so": 462,
      "ge": 463,
      "con": 464,
      "भि": 465,
      "ter": 466,
      "तु": 467,
      "पि": 468,
      "him": 469,
      "not": 470,
      "fe": 471,
      "am": 472,
      "ac": 473,
      "red": 474,
      "राज": 475,
      "तः": 476,
      "दे": 477,
      "mo": 478,
      "यो": 479,
      "द्र": 480,
      "fr": 481,
      "भव": 482,
      "क्त": 483,
      "res": 484,
      "महा": 485,
      "ab": 486,
      "oun": 487,
      "wor": 488,
      "त्त": 489,
      "कु": 490,
      "your": 491,
      "ex": 492,
      "my": 493,
      "ving": 494,
      "र्त": 495,
      "सर्व": 496,
      "ap": 497,
      "भा": 498,
      "up": 499,
      "ts": 500,
      "द्ध": 501,
      "ind": 502,
      "per": 503,
      "क्र": 504,
      "नु": 505,
      "there": 506,
      "was": 507,
      "रु": 508,
      "have": 509,
      "fore": 510,
      "qu": 511,
      "from": 512,
      "our": 513,
      "do": 514,
      "यं": 515,
      "्छ": 516,
      "ङ्": 517,
      "est": 518,
      "श्र": 519,
      "स्व": 520,
      "मान": 521,
      "तो": 522,
      "दि": 523,
      "then": 524,
      "end": 525,
      "lo": 526,
      "च्छ": 527,
      "va": 528,
      "ेष": 529,
      "ful": 530,
      "ish": 531,
      "great": 532,
      "said": 533,
      "tion": 534,
      "whi": 535,
      "ज्": 536,
      "दु": 537,
      "प्रा": 538,
      "now": 539,
      "go": 540,
      "र्य": 541,
      "their": 542,
      "र्म": 543,
      "la": 544,
      "ru": 545,
      "na": 546,
      "्रा": 547,
      "ण्": 548,
      "ose": 549,
      "ga": 550,
      "णा": 551,
      "र्थ": 552,
      "ानि": 553,
      "तं": 554,
      "pe": 555,
      "if": 556,
      "row": 557,
      "ds": 558,
      "रो": 559,
      "रे": 560,
      "नं": 561,
      "त्व": 562,
      "out": 563,
      "ould": 564,
      "mi": 565,
      "िता": 566,
      "न्य": 567,
      "हि": 568,
      "her": 569,
      "ck": 570,
      "लो": 571,
      "रि": 572,
      "सि": 573,
      "will": 574,
      "सम": 575,
      "द्य": 576,
      "ever": 577,
      "they": 578,
      "ैः": 579,
      "like": 580,
      "कि": 581,
      "वी": 582,
      "दृ": 583,
      "te": 584,
      "sel": 585,
      "नः": 586,
      "ैव": 587,
      "व्य": 588,
      "धि": 589,
      "other": 590,
      "ज्ञ": 591,
      "those": 592,
      "वे": 593,
      "भू": 594,
      "vi": 595,
      "न्ति": 596,
      ".\"\"\"": 597,
      "having": 598,
      "which": 599,
      "ana": 600,
      "ation": 601,
      "pro": 602,
      "ष्ठ": 603,
      "ण्ड": 604,
      "has": 605,
      "them": 606,
      "चा": 607,
      "ers": 608,
      "ती": 609,
      "si": 610,
      "जा": 611,
      "रं": 612,
      "शा": 613,
      "सह": 614,
      "ven": 615,
      "त्वा": 616,
      "स्थ": 617,
      "ल्": 618,
      "वाच": 619,
      "र्ष": 620,
      "्ये": 621,
      "ये": 622,
      "own": 623,
      "har": 624,
      "ने": 625,
      "के": 626,
      "धा": 627,
      "ोऽ": 628,
      "men": 629,
      "श्व": 630,
      "dis": 631,
      "वृ": 632,
      "ity": 633,
      "mb": 634,
      "दं": 635,
      "ला": 636,
      "des": 637,
      "les": 638,
      "way": 639,
      "war": 640,
      "परि": 641,
      "ci": 642,
      "न्तु": 643,
      "ord": 644,
      "bra": 645,
      "ant": 646,
      "op": 647,
      "fa": 648,
      "ca": 649,
      "रण": 650,
      "ear": 651,
      "att": 652,
      "tain": 653,
      "र्ण": 654,
      "द्व": 655,
      "ब्र": 656,
      "pr": 657,
      "भ्य": 658,
      "श्य": 659,
      "ong": 660,
      "self": 661,
      "ho": 662,
      "वै": 663,
      "af": 664,
      "should": 665,
      "see": 666,
      "ok": 667,
      "ya": 668,
      "these": 669,
      "ved": 670,
      "ानां": 671,
      "शि": 672,
      ".\"\"\"\"\"\"\"": 673,
      "were": 674,
      "had": 675,
      "प्त": 676,
      "गा": 677,
      "ment": 678,
      "hear": 679,
      "कं": 680,
      "णि": 681,
      "ud": 682,
      "also": 683,
      "तथा": 684,
      "when": 685,
      "led": 686,
      "po": 687,
      "ect": 688,
      "what": 689,
      "co": 690,
      "पू": 691,
      "ञ्च": 692,
      "car": 693,
      "bo": 694,
      "shall": 695,
      "इत्य": 696,
      "brah": 697,
      "vas": 698,
      "बा": 699,
      "चि": 700,
      "ष्य": 701,
      "but": 702,
      "नो": 703,
      "form": 704,
      "und": 705,
      "भी": 706,
      "know": 707,
      "लि": 708,
      "इति": 709,
      "ह्": 710,
      "तस्य": 711,
      "ill": 712,
      "can": 713,
      "मः": 714,
      "able": 715,
      "शु": 716,
      "प्रति": 717,
      "्यं": 718,
      "ren": 719,
      "ob": 720,
      "को": 721,
      "।\"\"\"\"\"\"\"": 722,
      "हं": 723,
      "ari": 724,
      "ate": 725,
      "ces": 726,
      "देव": 727,
      "ted": 728,
      "being": 729,
      "cri": 730,
      "से": 731,
      "पुत्र": 732,
      "most": 733,
      "तां": 734,
      "ान्त": 735,
      "gi": 736,
      "ors": 737,
      "नी": 738,
      "di": 739,
      "यः": 740,
      "हा": 741,
      "rā": 742,
      "been": 743,
      "pl": 744,
      "thus": 745,
      "attle": 746,
      "वर्त": 747,
      "सम्": 748,
      "ग्": 749,
      "tu": 750,
      "gr": 751,
      "et": 752,
      "du": 753,
      "यथा": 754,
      "ound": 755,
      "ves": 756,
      "battle": 757,
      "स्ति": 758,
      "mon": 759,
      "no": 760,
      "im": 761,
      "प्": 762,
      "उवाच": 763,
      "मध": 764,
      "त्म": 765,
      "par": 766,
      "ुं": 767,
      "ated": 768,
      "ka": 769,
      "ence": 770,
      "gain": 771,
      "स्मा": 772,
      "रथ": 773,
      "ction": 774,
      "ग्र": 775,
      "स्म": 776,
      "ress": 777,
      "orn": 778,
      "री": 779,
      "ाना": 780,
      "its": 781,
      "creat": 782,
      "स्मि": 783,
      "ेषु": 784,
      "हु": 785,
      "sha": 786,
      "एव": 787,
      "come": 788,
      "ple": 789,
      "upon": 790,
      "pi": 791,
      "god": 792,
      "रः": 793,
      "रू": 794,
      "दी": 795,
      "ले": 796,
      "स्या": 797,
      "high": 798,
      "गु": 799,
      "धर्म": 800,
      "als": 801,
      "लं": 802,
      "ef": 803,
      "न्द्र": 804,
      "ne": 805,
      "wo": 806,
      "ट्": 807,
      "ata": 808,
      "वान्": 809,
      "som": 810,
      "तत्": 811,
      "ree": 812,
      "ach": 813,
      "मित": 814,
      "ङ्ग": 815,
      "might": 816,
      "thing": 817,
      "arrow": 818,
      "मो": 819,
      "ower": 820,
      "brahman": 821,
      "ितः": 822,
      "coun": 823,
      "pp": 824,
      "ast": 825,
      "foremost": 826,
      "ris": 827,
      "ine": 828,
      "hish": 829,
      "cl": 830,
      "ang": 831,
      "again": 832,
      "ble": 833,
      "समा": 834,
      "चित": 835,
      "पृ": 836,
      "let": 837,
      "ust": 838,
      "यत्": 839,
      "स्त्र": 840,
      "il": 841,
      "कथ": 842,
      "pa": 843,
      "sons": 844,
      "words": 845,
      "ass": 846,
      "पे": 847,
      "down": 848,
      "शो": 849,
      "प्य": 850,
      "ough": 851,
      "सी": 852,
      "ह्म": 853,
      "ies": 854,
      "स्तु": 855,
      "any": 856,
      "दृष्ट": 857,
      "भिः": 858,
      "ks": 859,
      "pand": 860,
      "day": 861,
      "ure": 862,
      "णां": 863,
      "earth": 864,
      "ig": 865,
      "मं": 866,
      "after": 867,
      "spe": 868,
      "दर्": 869,
      "ness": 870,
      "सू": 871,
      "um": 872,
      "vir": 873,
      "came": 874,
      "pre": 875,
      "rit": 876,
      "arm": 877,
      "tha": 878,
      "tic": 879,
      "ic": 880,
      "lesti": 881,
      "र्ज": 882,
      "ser": 883,
      "celesti": 884,
      "ज्ञा": 885,
      "tr": 886,
      "many": 887,
      "lord": 888,
      "dr": 889,
      "मृ": 890,
      "arrows": 891,
      "even": 892,
      "world": 893,
      "urn": 894,
      "some": 895,
      "mighty": 896,
      "ash": 897,
      "पाण्ड": 898,
      "ans": 899,
      "how": 900,
      "तदा": 901,
      "व्या": 902,
      "thi": 903,
      "न्न": 904,
      "hero": 905,
      "power": 906,
      "लोक": 907,
      "ितं": 908,
      "नम्": 909,
      "की": 910,
      "less": 911,
      "sou": 912,
      "dest": 913,
      "br": 914,
      "under": 915,
      "बल": 916,
      "say": 917,
      "ting": 918,
      "ph": 919,
      "whe": 920,
      "bhar": 921,
      "act": 922,
      "reg": 923,
      "मम": 924,
      "ततो": 925,
      "णं": 926,
      "रत": 927,
      "well": 928,
      "hand": 929,
      "into": 930,
      "ance": 931,
      "pos": 932,
      "dh": 933,
      "ुद्ध": 934,
      "कृत": 935,
      "bow": 936,
      "warri": 937,
      "।\"\"\"": 938,
      "qui": 939,
      "तत्र": 940,
      "ten": 941,
      "beg": 942,
      "ीव": 943,
      "ise": 944,
      "ag": 945,
      "au": 946,
      "भु": 947,
      "शं": 948,
      "fu": 949,
      "kar": 950,
      "गृ": 951,
      "sin": 952,
      "over": 953,
      "bod": 954,
      "una": 955,
      "न्ध": 956,
      "ni": 957,
      "षा": 958,
      "म्य": 959,
      "two": 960,
      "ततः": 961,
      "read": 962,
      "time": 963,
      "ty": 964,
      "eld": 965,
      "गच्छ": 966,
      "ैर्": 967,
      "ject": 968,
      "pra": 969,
      "श्चा": 970,
      "every": 971,
      "यित": 972,
      "sacri": 973,
      "sacrifi": 974,
      "here": 975,
      "क्षि": 976,
      "श्रु": 977,
      "ele": 978,
      "ब्": 979,
      "यम्": 980,
      "ksh": 981,
      "न्द": 982,
      "exce": 983,
      "ष्ण": 984,
      "मध्ये": 985,
      "ged": 986,
      "मू": 987,
      "key": 988,
      "दर्श": 989,
      "pri": 990,
      "द्वि": 991,
      "add": 992,
      "र्वा": 993,
      "kill": 994,
      "good": 995,
      "जन": 996,
      "virtu": 997,
      "न्ते": 998,
      "ati": 999,
      "hold": 1000,
      "यि": 1001,
      "र्ग": 1002,
      "चे": 1003,
      "स्था": 1004,
      "right": 1005,
      "chi": 1006,
      "bro": 1007,
      "ष्म": 1008,
      "himself": 1009,
      "कर्त": 1010,
      "ants": 1011,
      "jo": 1012,
      "किं": 1013,
      "tra": 1014,
      "स्मिन्": 1015,
      "च्च": 1016,
      "ितम्": 1017,
      "दान": 1018,
      "use": 1019,
      "best": 1020,
      "ेण": 1021,
      "उप": 1022,
      "भो": 1023,
      "llow": 1024,
      "मां": 1025,
      "race": 1026,
      "tru": 1027,
      "ori": 1028,
      "ह्य": 1029,
      "such": 1030,
      "अपि": 1031,
      "तव": 1032,
      "wat": 1033,
      "पश्य": 1034,
      "shi": 1035,
      "वयं": 1036,
      "र्ध": 1037,
      "sub": 1038,
      "ोध": 1039,
      "head": 1040,
      "yud": 1041,
      "णः": 1042,
      "ced": 1043,
      "तेष": 1044,
      "thr": 1045,
      "इती": 1046,
      "ep": 1047,
      "vari": 1048,
      "off": 1049,
      "पित": 1050,
      "very": 1051,
      "ak": 1052,
      "away": 1053,
      "rish": 1054,
      "ene": 1055,
      "ब्रवी": 1056,
      "mind": 1057,
      "ures": 1058,
      "हृ": 1059,
      "ard": 1060,
      "रम्": 1061,
      "जय": 1062,
      "mar": 1063,
      "शी": 1064,
      "ध्य": 1065,
      "bharata": 1066,
      "ey": 1067,
      "र्मा": 1068,
      "tell": 1069,
      "hu": 1070,
      "ener": 1071,
      "ताः": 1072,
      "ons": 1073,
      "may": 1074,
      "वच": 1075,
      "ways": 1076,
      "arj": 1077,
      "र्थं": 1078,
      "वं": 1079,
      "about": 1080,
      "pleas": 1081,
      "el": 1082,
      "roy": 1083,
      "वः": 1084,
      "त्रि": 1085,
      "fl": 1086,
      "follow": 1087,
      "vers": 1088,
      "arjuna": 1089,
      "father": 1090,
      "pt": 1091,
      "करो": 1092,
      "fire": 1093,
      "desi": 1094,
      "ज्य": 1095,
      "light": 1096,
      "त्वं": 1097,
      "body": 1098,
      "ानु": 1099,
      "स्ते": 1100,
      "हे": 1101,
      "thira": 1102,
      "तम्": 1103,
      "ाः": 1104,
      "stand": 1105,
      "िताः": 1106,
      "lay": 1107,
      "she": 1108,
      "रक्ष": 1109,
      "तप": 1110,
      "ought": 1111,
      "therefore": 1112,
      "cap": 1113,
      "ath": 1114,
      "through": 1115,
      "name": 1116,
      "कर्म": 1117,
      "शः": 1118,
      "min": 1119,
      "warriors": 1120,
      "नृ": 1121,
      "life": 1122,
      "राजन्": 1123,
      "jay": 1124,
      "युक्त": 1125,
      "semb": 1126,
      "न्तः": 1127,
      "celestials": 1128,
      "call": 1129,
      "भवति": 1130,
      "ory": 1131,
      "),": 1132,
      "प्राप्त": 1133,
      "दृष्ट्वा": 1134,
      "ressed": 1135,
      "cli": 1136,
      "comm": 1137,
      "yudhish": 1138,
      "cont": 1139,
      "before": 1140,
      "मुख": 1141,
      "lled": 1142,
      "सर्वे": 1143,
      "never": 1144,
      "weap": 1145,
      "rāma": 1146,
      "yudhishthira": 1147,
      "ling": 1148,
      "मया": 1149,
      "deed": 1150,
      "pla": 1151,
      "युधि": 1152,
      "ite": 1153,
      "without": 1154,
      "कार": 1155,
      "ext": 1156,
      "panda": 1157,
      "eleph": 1158,
      "शर": 1159,
      "विश": 1160,
      "तेन": 1161,
      "ङ्क": 1162,
      "full": 1163,
      "did": 1164,
      "ace": 1165,
      "long": 1166,
      "ens": 1167,
      "ort": 1168,
      "where": 1169,
      "always": 1170,
      "अध": 1171,
      "स्त्व": 1172,
      "made": 1173,
      "moun": 1174,
      "seeing": 1175,
      "ions": 1176,
      "monkey": 1177,
      "सौ": 1178,
      "सः": 1179,
      "powerful": 1180,
      "lear": 1181,
      "त्या": 1182,
      "gri": 1183,
      "fear": 1184,
      "bl": 1185,
      "ret": 1186,
      "यां": 1187,
      "ol": 1188,
      "पार्थ": 1189,
      "मन": 1190,
      "पूर्व": 1191,
      "stru": 1192,
      "रुष": 1193,
      "cess": 1194,
      "dom": 1195,
      "pres": 1196,
      "three": 1197,
      "among": 1198,
      "dra": 1199,
      "nor": 1200,
      "क्य": 1201,
      "सो": 1202,
      "ack": 1203,
      "योग": 1204,
      "विष": 1205,
      "दुः": 1206,
      "स्र": 1207,
      "मेव": 1208,
      "ञ्": 1209,
      "fir": 1210,
      "मुक्त": 1211,
      "dur": 1212,
      "utori": 1213,
      "ished": 1214,
      "मास": 1215,
      "ड्": 1216,
      "र्द": 1217,
      "sun": 1218,
      "began": 1219,
      "pass": 1220,
      "र्ह": 1221,
      "पति": 1222,
      "thous": 1223,
      "thousand": 1224,
      "त्तम": 1225,
      "appe": 1226,
      "वत्": 1227,
      "त्रा": 1228,
      "mp": 1229,
      "श्": 1230,
      "विध": 1231,
      "परा": 1232,
      "क्ष्य": 1233,
      "राजा": 1234,
      "कर्ण": 1235,
      "इत्यस्य": 1236,
      "मनु": 1237,
      "cted": 1238,
      "born": 1239,
      "्यामि": 1240,
      "ona": 1241,
      "alth": 1242,
      "नां": 1243,
      "समु": 1244,
      "nu": 1245,
      "कम्": 1246,
      "cked": 1247,
      "कौ": 1248,
      "ब्रा": 1249,
      "gif": 1250,
      "brother": 1251,
      "तद्": 1252,
      "int": 1253,
      "वान": 1254,
      "राक्ष": 1255,
      "बहु": 1256,
      "चैव": 1257,
      "sla": 1258,
      "ara": 1259,
      "forest": 1260,
      "prot": 1261,
      "ste": 1262,
      "another": 1263,
      "प्रत्य": 1264,
      "asce": 1265,
      "ascetic": 1266,
      "kur": 1267,
      "karna": 1268,
      "tutori": 1269,
      "नाम": 1270,
      "jaya": 1271,
      "यते": 1272,
      "drona": 1273,
      "द्वा": 1274,
      "sat": 1275,
      "प्रि": 1276,
      "both": 1277,
      "?\"": 1278,
      "arch": 1279,
      "creatures": 1280,
      "mer": 1281,
      "सत्य": 1282,
      "..": 1283,
      "वृत्त": 1284,
      "unto": 1285,
      "gu": 1286,
      "ानं": 1287,
      "भ्रा": 1288,
      "मन्य": 1289,
      "ents": 1290,
      "only": 1291,
      "ities": 1292,
      "wards": 1293,
      "थि": 1294,
      "ब्राह्म": 1295,
      "learn": 1296,
      "highly": 1297,
      "called": 1298,
      "went": 1299,
      "ष्यति": 1300,
      "brahmanas": 1301,
      "person": 1302,
      "ही": 1303,
      "click": 1304,
      "यन्": 1305,
      "सेन": 1306,
      "इतीदं": 1307,
      "युद्ध": 1308,
      "water": 1309,
      "various": 1310,
      "destroy": 1311,
      "णो": 1312,
      "सृ": 1313,
      "कः": 1314,
      "ग्रा": 1315,
      "fri": 1316,
      "med": 1317,
      "kes": 1318,
      "ala": 1319,
      "saying": 1320,
      "more": 1321,
      "ष्ठि": 1322,
      "गो": 1323,
      "यति": 1324,
      "पुन": 1325,
      "kings": 1326,
      "dev": 1327,
      "behold": 1328,
      "mountain": 1329,
      "became": 1330,
      "यदि": 1331,
      "char": 1332,
      "स्तथा": 1333,
      "indra": 1334,
      "तद": 1335,
      "मपि": 1336,
      "ब्रह्म": 1337,
      "श्रे": 1338,
      "joy": 1339,
      "while": 1340,
      "cend": 1341,
      "bir": 1342,
      "षि": 1343,
      "prow": 1344,
      "दश": 1345,
      "भारत": 1346,
      "gold": 1347,
      "prowess": 1348,
      "krish": 1349,
      "भृ": 1350,
      "friend": 1351,
      "hea": 1352,
      "perform": 1353,
      "तत": 1354,
      "जीव": 1355,
      "pan": 1356,
      "पं": 1357,
      "desire": 1358,
      "fight": 1359,
      "दो": 1360,
      "अहं": 1361,
      "ित्य": 1362,
      ",\"": 1363,
      "ins": 1364,
      "र्या": 1365,
      "बुद्ध": 1366,
      "याः": 1367,
      "death": 1368,
      "तान्": 1369,
      "field": 1370,
      "पत": 1371,
      "asas": 1372,
      "कुर्व": 1373,
      "krishna": 1374,
      "look": 1375,
      "tutorial": 1376,
      "सै": 1377,
      "शू": 1378,
      "सर्वा": 1379,
      "gods": 1380,
      "qual": 1381,
      "mit": 1382,
      "sess": 1383,
      "हो": 1384,
      "ings": 1385,
      "कार्य": 1386,
      "col": 1387,
      "राम": 1388,
      "kş": 1389,
      "ceed": 1390,
      "देश": 1391,
      "पुरुष": 1392,
      "श्चैव": 1393,
      "bhish": 1394,
      "वो": 1395,
      "soul": 1396,
      "pandavas": 1397,
      "ally": 1398,
      "नुद": 1399,
      "जि": 1400,
      "कृत्वा": 1401,
      "युधिष्ठि": 1402,
      "यामास": 1403,
      "ुना": 1404,
      "eyes": 1405,
      "ist": 1406,
      "एक": 1407,
      "ink": 1408,
      "अस्ति": 1409,
      "ध्व": 1410,
      "uni": 1411,
      "क्रि": 1412,
      "place": 1413,
      "val": 1414,
      "cti": 1415,
      "न्व": 1416,
      "happ": 1417,
      "भीम": 1418,
      "कथं": 1419,
      "भूत": 1420,
      "कर": 1421,
      "bhishma": 1422,
      "brahmana": 1423,
      "possess": 1424,
      "age": 1425,
      "पञ्च": 1426,
      "ars": 1427,
      "पो": 1428,
      "sid": 1429,
      "enter": 1430,
      "ments": 1431,
      "pen": 1432,
      "resemb": 1433,
      "तथ": 1434,
      "hana": 1435,
      "oken": 1436,
      "धृ": 1437,
      "ान्य": 1438,
      "मानं": 1439,
      "भग": 1440,
      "cour": 1441,
      "mber": 1442,
      "ल्य": 1443,
      "get": 1444,
      "भवे": 1445,
      "ft": 1446,
      "tre": 1447,
      "ations": 1448,
      "पुनः": 1449,
      "कुरु": 1450,
      "तेषां": 1451,
      "pur": 1452,
      "virtue": 1453,
      "side": 1454,
      "excell": 1455,
      "त्मा": 1456,
      "रणे": 1457,
      "ared": 1458,
      "ms": 1459,
      "कल्": 1460,
      "ली": 1461,
      "म्ब": 1462,
      "fru": 1463,
      "राष्ट": 1464,
      "न्त्र": 1465,
      "vered": 1466,
      "yas": 1467,
      "ered": 1468,
      "lar": 1469,
      "army": 1470,
      "ब्रवीत्": 1471,
      "sur": 1472,
      "वर्तते": 1473,
      "each": 1474,
      "set": 1475,
      "राः": 1476,
      "yo": 1477,
      "द्रो": 1478,
      "killed": 1479,
      "ैर": 1480,
      "hima": 1481,
      "घो": 1482,
      "स्ता": 1483,
      "excellent": 1484,
      "भवि": 1485,
      "अथ": 1486,
      "एवं": 1487,
      "str": 1488,
      "fied": 1489,
      "ined": 1490,
      "take": 1491,
      "णी": 1492,
      "wa": 1493,
      "ैश्च": 1494,
      "ye": 1495,
      "weapons": 1496,
      "mis": 1497,
      "च्य": 1498,
      "परं": 1499,
      "hearing": 1500,
      "play": 1501,
      "gy": 1502,
      "अस्मा": 1503,
      "यत": 1504,
      "child": 1505,
      "ances": 1506,
      "भाग": 1507,
      "ितो": 1508,
      "object": 1509,
      "ञ्ज": 1510,
      "sor": 1511,
      "षु": 1512,
      "वर्ष": 1513,
      "णे": 1514,
      "भे": 1515,
      "शक्": 1516,
      "heard": 1517,
      "नम": 1518,
      "सुख": 1519,
      "व्र": 1520,
      "iness": 1521,
      "wind": 1522,
      "suc": 1523,
      "spoken": 1524,
      "ura": 1525,
      "chari": 1526,
      "addressed": 1527,
      "यू": 1528,
      "does": 1529,
      "thereupon": 1530,
      "cut": 1531,
      "mies": 1532,
      "back": 1533,
      "हू": 1534,
      "sk": 1535,
      "heaven": 1536,
      "put": 1537,
      "क्षा": 1538,
      "prin": 1539,
      "wel": 1540,
      "protect": 1541,
      "chariot": 1542,
      "ily": 1543,
      "give": 1544,
      "slay": 1545,
      "क्षे": 1546,
      "ghter": 1547,
      "peop": 1548,
      "वित": 1549,
      "सन्": 1550,
      "नाः": 1551,
      "arms": 1552,
      "kind": 1553,
      "anjaya": 1554,
      "ja": 1555,
      "रस्य": 1556,
      "bre": 1557,
      "पश": 1558,
      "cious": 1559,
      "yod": 1560,
      "people": 1561,
      "command": 1562,
      "elephants": 1563,
      "mat": 1564,
      "अत्र": 1565,
      "विद्य": 1566,
      "ताम्": 1567,
      "filled": 1568,
      "count": 1569,
      "ued": 1570,
      "rest": 1571,
      "yodhana": 1572,
      "bet": 1573,
      "शम्": 1574,
      "वद": 1575,
      "would": 1576,
      "used": 1577,
      "दुःख": 1578,
      "first": 1579,
      "acqui": 1580,
      "ledge": 1581,
      "truth": 1582,
      "hund": 1583,
      "rious": 1584,
      "eous": 1585,
      "तौ": 1586,
      "rush": 1587,
      "dar": 1588,
      "वर्ण": 1589,
      "hundred": 1590,
      "vis": 1591,
      "cer": 1592,
      "monkeys": 1593,
      "ating": 1594,
      "ena": 1595,
      "dif": 1596,
      "others": 1597,
      "cur": 1598,
      "beau": 1599,
      "beauti": 1600,
      "gth": 1601,
      "पी": 1602,
      "ुम्": 1603,
      "fts": 1604,
      "heart": 1605,
      "gand": 1606,
      "।।": 1607,
      "deva": 1608,
      "प्रे": 1609,
      "यस्य": 1610,
      "towards": 1611,
      "bhima": 1612,
      "capable": 1613,
      "ayana": 1614,
      "तस्मा": 1615,
      "ited": 1616,
      "gra": 1617,
      "knowledge": 1618,
      "wealth": 1619,
      "fli": 1620,
      "hors": 1621,
      "van": 1622,
      "काल": 1623,
      "vid": 1624,
      "निर्": 1625,
      "ase": 1626,
      "horses": 1627,
      "जे": 1628,
      "ण्य": 1629,
      "वर": 1630,
      "न्तं": 1631,
      "पिता": 1632,
      "पाय": 1633,
      "राष्ट्र": 1634,
      "lect": 1635,
      "मान्": 1636,
      "ष्टा": 1637,
      "things": 1638,
      "ुः": 1639,
      "fic": 1640,
      "श्रेष्ठ": 1641,
      "obtain": 1642,
      "sing": 1643,
      "cause": 1644,
      "धी": 1645,
      "ken": 1646,
      "ask": 1647,
      "anger": 1648,
      "than": 1649,
      "shafts": 1650,
      "िते": 1651,
      "sto": 1652,
      "verse": 1653,
      "means": 1654,
      "whose": 1655,
      "यम": 1656,
      "atri": 1657,
      "िं": 1658,
      "दृश्य": 1659,
      "नेन": 1660,
      "che": 1661,
      "ry": 1662,
      "पुरा": 1663,
      "अव": 1664,
      "wise": 1665,
      "kingdom": 1666,
      "comes": 1667,
      "इदं": 1668,
      "दत्त": 1669,
      "worshi": 1670,
      "food": 1671,
      "रेण": 1672,
      "wish": 1673,
      "fall": 1674,
      "live": 1675,
      "फल": 1676,
      "pandu": 1677,
      "ties": 1678,
      "पाद": 1679,
      "make": 1680,
      "enemies": 1681,
      "चित्र": 1682,
      "seen": 1683,
      "नुदन्तु": 1684,
      "ond": 1685,
      "duryodhana": 1686,
      "rul": 1687,
      "।॥": 1688,
      "न्या": 1689,
      "है": 1690,
      "ue": 1691,
      "cei": 1692,
      "energy": 1693,
      "four": 1694,
      "मी": 1695,
      "ali": 1696,
      "stren": 1697,
      "proper": 1698,
      "beautiful": 1699,
      "pu": 1700,
      "tions": 1701,
      "ary": 1702,
      "ult": 1703,
      ").\"": 1704,
      "श्रुत्वा": 1705,
      "greatly": 1706,
      "show": 1707,
      "acc": 1708,
      "cal": 1709,
      "sacrifice": 1710,
      "घा": 1711,
      "क्रुद्ध": 1712,
      "ीं": 1713,
      "hava": 1714,
      "oud": 1715,
      "grief": 1716,
      "सोऽ": 1717,
      "महात्म": 1718,
      "विद": 1719,
      "ounded": 1720,
      "ched": 1721,
      "mu": 1722,
      "try": 1723,
      "pier": 1724,
      "atta": 1725,
      "same": 1726,
      "slain": 1727,
      "saw": 1728,
      "यित्वा": 1729,
      "dau": 1730,
      "क्ष्म": 1731,
      "त्त्व": 1732,
      "lad": 1733,
      "राव": 1734,
      "र्जु": 1735,
      "vana": 1736,
      "अनु": 1737,
      "तिष्ठ": 1738,
      "nam": 1739,
      "wom": 1740,
      "ख्या": 1741,
      "hus": 1742,
      "नर": 1743,
      "िति": 1744,
      "against": 1745,
      "new": 1746,
      "कृष्ण": 1747,
      "नू": 1748,
      "become": 1749,
      "descend": 1750,
      "नाम्": 1751,
      "type": 1752,
      "strength": 1753,
      "acts": 1754,
      "शत": 1755,
      "तृ": 1756,
      "blo": 1757,
      "sum": 1758,
      "hands": 1759,
      "night": 1760,
      "सन्ति": 1761,
      "resp": 1762,
      "काः": 1763,
      "year": 1764,
      "वन": 1765,
      "attain": 1766,
      "righteous": 1767,
      "ोप": 1768,
      "प्री": 1769,
      "could": 1770,
      "द्रा": 1771,
      "space": 1772,
      "celestial": 1773,
      "\"\"\"\"\"\"\"\"": 1774,
      "nar": 1775,
      "oke": 1776,
      "टि": 1777,
      "शृ": 1778,
      "भ्यः": 1779,
      "indeed": 1780,
      "dist": 1781,
      "monarch": 1782,
      "णम्": 1783,
      "जान": 1784,
      "persons": 1785,
      "ition": 1786,
      "illust": 1787,
      "da": 1788,
      "वेद": 1789,
      "whom": 1790,
      "peri": 1791,
      "ile": 1792,
      "cept": 1793,
      "city": 1794,
      "tern": 1795,
      "fer": 1796,
      "clo": 1797,
      "arash": 1798,
      "च्छा": 1799,
      "ada": 1800,
      "पते": 1801,
      "चर": 1802,
      "टे": 1803,
      "dhrit": 1804,
      "rishi": 1805,
      "महाराज": 1806,
      "brahma": 1807,
      ").": 1808,
      "feren": 1809,
      "ेषां": 1810,
      "intell": 1811,
      "illustrious": 1812,
      "hel": 1813,
      "सहस्र": 1814,
      "covered": 1815,
      "दू": 1816,
      "ग्नि": 1817,
      "यदा": 1818,
      "living": 1819,
      "resembling": 1820,
      "intellig": 1821,
      "asa": 1822,
      "gn": 1823,
      "वीर्य": 1824,
      "cle": 1825,
      "accom": 1826,
      "मिति": 1827,
      "arashtra": 1828,
      "इत्ये": 1829,
      "ange": 1830,
      "वाः": 1831,
      "सर": 1832,
      "spoke": 1833,
      "mother": 1834,
      "ween": 1835,
      "अधुना": 1836,
      "नै": 1837,
      "return": 1838,
      "isha": 1839,
      "between": 1840,
      "र्षभ": 1841,
      "known": 1842,
      "dhritarashtra": 1843,
      "rep": 1844,
      "asena": 1845,
      "ouse": 1846,
      "चिन्त": 1847,
      "अन्य": 1848,
      "given": 1849,
      "तानि": 1850,
      "शक्त": 1851,
      "enga": 1852,
      "file": 1853,
      "souled": 1854,
      "obser": 1855,
      "तम": 1856,
      "पः": 1857,
      "grand": 1858,
      "चक्र": 1859,
      "निह": 1860,
      "selves": 1861,
      "शरी": 1862,
      "band": 1863,
      "शे": 1864,
      "terri": 1865,
      "pal": 1866,
      ".,": 1867,
      "लक्ष्म": 1868,
      "main": 1869,
      "sc": 1870,
      "गे": 1871,
      "क्षु": 1872,
      "साध": 1873,
      "fully": 1874,
      "पर्व": 1875,
      "heroes": 1876,
      "daughter": 1877,
      "काम": 1878,
      "करोति": 1879,
      "स्वा": 1880,
      "wife": 1881,
      "vedas": 1882,
      "पाठ": 1883,
      "दक्षि": 1884,
      "delight": 1885,
      "host": 1886,
      "shar": 1887,
      "rel": 1888,
      "घ्र": 1889,
      "word": 1890,
      "endued": 1891,
      "sens": 1892,
      "येन": 1893,
      "ide": 1894,
      "enti": 1895,
      "पात": 1896,
      "rishis": 1897,
      "धनु": 1898,
      "ters": 1899,
      "पाण्डव": 1900,
      "स्तदा": 1901,
      "unti": 1902,
      "गन्ध": 1903,
      "regard": 1904,
      "बाल": 1905,
      "however": 1906,
      "ņa": 1907,
      "ps": 1908,
      "व्यं": 1909,
      "कर्तुं": 1910,
      "beholding": 1911,
      "kshatri": 1912,
      "मिव": 1913,
      "यत्र": 1914,
      "bes": 1915,
      "foes": 1916,
      "destru": 1917,
      "contro": 1918,
      "टङ्क": 1919,
      "मित्र": 1920,
      "dire": 1921,
      "number": 1922,
      "course": 1923,
      "क्यं": 1924,
      "हर": 1925,
      "वीर": 1926,
      "पृथि": 1927,
      "armed": 1928,
      "bu": 1929,
      "dread": 1930,
      "viz": 1931,
      "रूप": 1932,
      "proceed": 1933,
      "vo": 1934,
      "तिः": 1935,
      "तुं": 1936,
      "cannot": 1937,
      "न्ती": 1938,
      "ows": 1939,
      "mes": 1940,
      "खा": 1941,
      "next": 1942,
      "प्रो": 1943,
      "भाव": 1944,
      "bed": 1945,
      "lt": 1946,
      "five": 1947,
      "कस्य": 1948,
      "ger": 1949,
      "उत्": 1950,
      "sacrifices": 1951,
      "took": 1952,
      "uty": 1953,
      "भरत": 1954,
      "account": 1955,
      "बि": 1956,
      "तेज": 1957,
      "display": 1958,
      "त्वया": 1959,
      "rec": 1960,
      "गम": 1961,
      "शत्र": 1962,
      "aring": 1963,
      "possessed": 1964,
      "भ्र": 1965,
      "यी": 1966,
      "योज": 1967,
      "done": 1968,
      "kuru": 1969,
      "ised": 1970,
      "संश": 1971,
      "र्योध": 1972,
      "तोऽ": 1973,
      "समी": 1974,
      "रम": 1975,
      "ेन्द्र": 1976,
      "hon": 1977,
      "gar": 1978,
      "चन": 1979,
      "पर्य": 1980,
      "इव": 1981,
      "why": 1982,
      "cing": 1983,
      "विक्र": 1984,
      "रणं": 1985,
      "work": 1986,
      "यितुं": 1987,
      "गि": 1988,
      "eding": 1989,
      "birth": 1990,
      "dreadful": 1991,
      "यज्ञ": 1992,
      "पन्": 1993,
      "कृते": 1994,
      "tro": 1995,
      "कश्च": 1996,
      "चित्": 1997,
      "var": 1998,
      "gether": 1999,
      "press": 2000,
      "ank": 2001,
      "together": 2002,
      "पाल": 2003,
      "द्विज": 2004,
      "burn": 2005,
      "standing": 2006,
      "सदा": 2007,
      "lea": 2008,
      "चो": 2009,
      "भाष": 2010,
      "धनं": 2011,
      "stud": 2012,
      "गुण": 2013,
      "fruits": 2014,
      "accord": 2015,
      "दुर्योध": 2016,
      "्राणि": 2017,
      "bh": 2018,
      "once": 2019,
      "anim": 2020,
      "rama": 2021,
      "दम": 2022,
      "धर्मा": 2023,
      "यन्तु": 2024,
      "enjoy": 2025,
      "पायन": 2026,
      "ाने": 2027,
      "ops": 2028,
      "descendant": 2029,
      "ning": 2030,
      "मन्त्र": 2031,
      "cial": 2032,
      "iti": 2033,
      "pped": 2034,
      "gandhar": 2035,
      "मिदं": 2036,
      "present": 2037,
      "coming": 2038,
      "happiness": 2039,
      "tri": 2040,
      "द्धि": 2041,
      "ित्": 2042,
      "taking": 2043,
      "friends": 2044,
      "much": 2045,
      "nat": 2046,
      "pierced": 2047,
      "den": 2048,
      "भ्या": 2049,
      "ांश्च": 2050,
      "विव": 2051,
      "वास": 2052,
      "senses": 2053,
      "पुष्": 2054,
      "महाबा": 2055,
      "abo": 2056,
      "ray": 2057,
      "राघ": 2058,
      "भ्यां": 2059,
      "stri": 2060,
      "ight": 2061,
      "बुद्धि": 2062,
      "अभि": 2063,
      "ष्मा": 2064,
      "शक्नु": 2065,
      "यौ": 2066,
      "सर्वं": 2067,
      "equal": 2068,
      "duties": 2069,
      "destruction": 2070,
      "तस्मिन्": 2071,
      "chief": 2072,
      "ki": 2073,
      "thy": 2074,
      "affli": 2075,
      "trees": 2076,
      "certain": 2077,
      "किन्तु": 2078,
      "kunti": 2079,
      "sy": 2080,
      "tered": 2081,
      "स्मै": 2082,
      "ctions": 2083,
      "मर्ह": 2084,
      "indi": 2085,
      "sal": 2086,
      "राज्": 2087,
      "ष्यामि": 2088,
      "lot": 2089,
      "ches": 2090,
      "न्तो": 2091,
      "virtuous": 2092,
      "engaged": 2093,
      "desir": 2094,
      "ones": 2095,
      "appro": 2096,
      "plac": 2097,
      "राज्ञ": 2098,
      "हम्": 2099,
      "husband": 2100,
      "पौ": 2101,
      "दम्": 2102,
      "वैशम्": 2103,
      "धे": 2104,
      "मही": 2105,
      "raksh": 2106,
      "large": 2107,
      "वाक्य": 2108,
      "भवेत्": 2109,
      "along": 2110,
      "भवत्": 2111,
      "प्रजा": 2112,
      "वस": 2113,
      "योः": 2114,
      "universe": 2115,
      "वैशम्पायन": 2116,
      "cy": 2117,
      "एष": 2118,
      "within": 2119,
      "टर्": 2120,
      "ground": 2121,
      "exceeding": 2122,
      "sky": 2123,
      "र्हि": 2124,
      "speak": 2125,
      "ither": 2126,
      "वां": 2127,
      "worlds": 2128,
      "land": 2129,
      "fulg": 2130,
      "dou": 2131,
      "निः": 2132,
      "लोके": 2133,
      "सैन्य": 2134,
      "left": 2135,
      "fam": 2136,
      "नित": 2137,
      "पाप": 2138,
      "days": 2139,
      "mpayana": 2140,
      "han": 2141,
      "ouds": 2142,
      "vaisha": 2143,
      "कृता": 2144,
      "दुर्": 2145,
      "समरे": 2146,
      "तथैव": 2147,
      "परिवर्त": 2148,
      "effulg": 2149,
      "काले": 2150,
      "using": 2151,
      "clouds": 2152,
      "पूर्ण": 2153,
      "struck": 2154,
      "vaishampayana": 2155,
      "ctory": 2156,
      "old": 2157,
      "alas": 2158,
      "reli": 2159,
      "भीष्म": 2160,
      "चतु": 2161,
      "bring": 2162,
      "becomes": 2163,
      "कृतं": 2164,
      "उपरि": 2165,
      "ब्राह्मण": 2166,
      "माः": 2167,
      "चापि": 2168,
      "क्तं": 2169,
      "going": 2170,
      "bless": 2171,
      ",\"\"\"\"\"\"\"": 2172,
      "house": 2173,
      "दः": 2174,
      "सन": 2175,
      "ीय": 2176,
      "ew": 2177,
      "bhim": 2178,
      "ied": 2179,
      "्यु": 2180,
      "oce": 2181,
      "णाः": 2182,
      "हित": 2183,
      "sorrow": 2184,
      "ध्या": 2185,
      "तन्": 2186,
      "लम्": 2187,
      "condu": 2188,
      "according": 2189,
      "eds": 2190,
      "sure": 2191,
      "kurus": 2192,
      "spir": 2193,
      "years": 2194,
      "cre": 2195,
      "प्रका": 2196,
      "चै": 2197,
      "ञ्चि": 2198,
      "भीमसेन": 2199,
      "निश्च": 2200,
      "precept": 2201,
      "विशा": 2202,
      "ताव": 2203,
      "rath": 2204,
      "desirous": 2205,
      "महाबल": 2206,
      "lead": 2207,
      "स्थाप": 2208,
      "णु": 2209,
      "recei": 2210,
      "धर्": 2211,
      "inst": 2212,
      "भवान्": 2213,
      "lis": 2214,
      "माना": 2215,
      "cred": 2216,
      "गतः": 2217,
      "सिं": 2218,
      "केन": 2219,
      "गत्वा": 2220,
      "order": 2221,
      "भार": 2222,
      "विधि": 2223,
      "व्यव": 2224,
      "स्त्रि": 2225,
      "flow": 2226,
      "भविष्यति": 2227,
      "respect": 2228,
      "ber": 2229,
      "bri": 2230,
      "तेषु": 2231,
      "यद्": 2232,
      "ba": 2233,
      "ges": 2234,
      "गत": 2235,
      "स्तस्य": 2236,
      "mas": 2237,
      "शब्": 2238,
      "कर्": 2239,
      "वार": 2240,
      "vil": 2241,
      "supp": 2242,
      "appeared": 2243,
      "moon": 2244,
      "रूपे": 2245,
      "सां": 2246,
      "devot": 2247,
      "बु": 2248,
      "today": 2249,
      "ष्टं": 2250,
      "wicked": 2251,
      "वेश": 2252,
      "troops": 2253,
      "लु": 2254,
      "त्वां": 2255,
      "subject": 2256,
      "heroic": 2257,
      "अन": 2258,
      "sanjaya": 2259,
      "soon": 2260,
      "तस्या": 2261,
      "वन्": 2262,
      "shak": 2263,
      "pleased": 2264,
      "part": 2265,
      "युधिष्ठिर": 2266,
      "itu": 2267,
      "help": 2268,
      "fell": 2269,
      "descri": 2270,
      "warrior": 2271,
      "brothers": 2272,
      "सप्त": 2273,
      "bhimasena": 2274,
      "स्तत्र": 2275,
      "entered": 2276,
      "sol": 2277,
      "move": 2278,
      "art": 2279,
      "select": 2280,
      "र्षि": 2281,
      "ready": 2282,
      "कू": 2283,
      "नन्द": 2284,
      "sequ": 2285,
      "बाण": 2286,
      "enemy": 2287,
      "ku": 2288,
      "rushed": 2289,
      "मौ": 2290,
      "यात्": 2291,
      "पार्थि": 2292,
      "पश्या": 2293,
      "too": 2294,
      "भिर्": 2295,
      "ब्ध": 2296,
      "स्वि": 2297,
      "अस्य": 2298,
      "success": 2299,
      "differen": 2300,
      "बन्ध": 2301,
      "cons": 2302,
      "मानि": 2303,
      "gave": 2304,
      "श्री": 2305,
      "blood": 2306,
      "सर्व्व": 2307,
      "sacred": 2308,
      "यामि": 2309,
      "पूज": 2310,
      "घ्": 2311,
      "hy": 2312,
      "तर": 2313,
      "एवमुक्त": 2314,
      "wrath": 2315,
      "एतत्": 2316,
      "करण": 2317,
      "क्स्": 2318,
      "मुप": 2319,
      "cars": 2320,
      "श्वा": 2321,
      "thousands": 2322,
      "द्धा": 2323,
      "षे": 2324,
      "युष्मा": 2325,
      "prosp": 2326,
      "प्राप्": 2327,
      "fre": 2328,
      "टा": 2329,
      "whole": 2330,
      "जः": 2331,
      "दण्ड": 2332,
      "त्तमम्": 2333,
      "taken": 2334,
      "महारथ": 2335,
      "themselves": 2336,
      "named": 2337,
      "सुर": 2338,
      "डि": 2339,
      "rākş": 2340,
      "अस्माकं": 2341,
      "must": 2342,
      "thought": 2343,
      "region": 2344,
      "deeds": 2345,
      "संजय": 2346,
      "र्था": 2347,
      "gan": 2348,
      "नोति": 2349,
      "kas": 2350,
      "ocean": 2351,
      "vish": 2352,
      "तेऽ": 2353,
      "sion": 2354,
      "मेण": 2355,
      "नाना": 2356,
      "पश्चा": 2357,
      "द्रोण": 2358,
      "टो": 2359,
      "क्व": 2360,
      "prosper": 2361,
      "sle": 2362,
      "ष्या": 2363,
      "gifted": 2364,
      "cond": 2365,
      "यान्": 2366,
      "विना": 2367,
      "क्लि": 2368,
      "following": 2369,
      "प्राप्य": 2370,
      "brought": 2371,
      "ruler": 2372,
      "inv": 2373,
      "शै": 2374,
      "objects": 2375,
      "gl": 2376,
      "माण": 2377,
      "क्त्वा": 2378,
      "sl": 2379,
      "मत्": 2380,
      "mad": 2381,
      "tail": 2382,
      "ice": 2383,
      "defe": 2384,
      "त्रं": 2385,
      "adorn": 2386,
      "मानु": 2387,
      "धार": 2388,
      "run": 2389,
      "नित्यं": 2390,
      ",\"\"\"": 2391,
      "ईश्व": 2392,
      "dep": 2393,
      "ign": 2394,
      "क्रोध": 2395,
      "गुरु": 2396,
      "ततोऽ": 2397,
      "terrible": 2398,
      "ज्ज": 2399,
      "कुर्वन्तु": 2400,
      "lotus": 2401,
      "गति": 2402,
      "open": 2403,
      "mid": 2404,
      "ason": 2405,
      "conduct": 2406,
      "cu": 2407,
      "ates": 2408,
      "because": 2409,
      "न्तरं": 2410,
      "num": 2411,
      "सूर्य": 2412,
      "नस्य": 2413,
      "विप्र": 2414,
      "श्वे": 2415,
      "penances": 2416,
      "ternal": 2417,
      "शक्र": 2418,
      "created": 2419,
      "जगा": 2420,
      "सर्": 2421,
      "निष्": 2422,
      "regions": 2423,
      "देवा": 2424,
      "साद्य": 2425,
      "गी": 2426,
      "यान": 2427,
      "वेग": 2428,
      "चार": 2429,
      "human": 2430,
      "युज्य": 2431,
      "gs": 2432,
      "यथ": 2433,
      "looked": 2434,
      "comple": 2435,
      "listen": 2436,
      "स्वर्ग": 2437,
      "country": 2438,
      "speed": 2439,
      "ava": 2440,
      "imp": 2441,
      "योऽ": 2442,
      "wood": 2443,
      "कल्प": 2444,
      "swe": 2445,
      "अधि": 2446,
      "onder": 2447,
      "exceedingly": 2448,
      "गण": 2449,
      "though": 2450,
      "face": 2451,
      "सीत्": 2452,
      "elephant": 2453,
      "ची": 2454,
      "quick": 2455,
      "dro": 2456,
      "भौ": 2457,
      "tā": 2458,
      "स्तं": 2459,
      "ज्ञान": 2460,
      "beings": 2461,
      "cast": 2462,
      "fier": 2463,
      "पृथिवी": 2464,
      "sed": 2465,
      "नौ": 2466,
      "lic": 2467,
      "ze": 2468,
      "satya": 2469,
      "learned": 2470,
      "line": 2471,
      "vasu": 2472,
      "hal": 2473,
      "merit": 2474,
      "save": 2475,
      "adorned": 2476,
      "त्यु": 2477,
      "golden": 2478,
      "kinds": 2479,
      "lives": 2480,
      "forth": 2481,
      "....": 2482,
      "न्स्": 2483,
      "draw": 2484,
      "रां": 2485,
      "विश्वा": 2486,
      "performed": 2487,
      "मै": 2488,
      "न्ता": 2489,
      "कुल": 2490,
      "द्रौ": 2491,
      "surr": 2492,
      "जी": 2493,
      "भवन्ति": 2494,
      "?\"\"\"": 2495,
      "दाय": 2496,
      "sold": 2497,
      "care": 2498,
      "फ़": 2499,
      "मम्": 2500,
      "tou": 2501,
      "think": 2502,
      "orig": 2503,
      "नाग": 2504,
      "bha": 2505,
      "ech": 2506,
      "बभू": 2507,
      "नग": 2508,
      "yourself": 2509,
      "dhan": 2510,
      "sna": 2511,
      "महे": 2512,
      "worship": 2513,
      "origin": 2514,
      "six": 2515,
      "hom": 2516,
      "धृत": 2517,
      "bla": 2518,
      "दद": 2519,
      "sage": 2520,
      "chariote": 2521,
      "preceptor": 2522,
      "नास्ति": 2523,
      "find": 2524,
      "oured": 2525,
      "ban": 2526,
      "रच": 2527,
      "create": 2528,
      "mal": 2529,
      "प्रवि": 2530,
      "वाक्यं": 2531,
      "times": 2532,
      "कौर": 2533,
      "accompl": 2534,
      "कां": 2535,
      "ान्ति": 2536,
      "class": 2537,
      "श्चापि": 2538,
      "प्रथ": 2539,
      "क्ता": 2540,
      "just": 2541,
      "superi": 2542,
      "fin": 2543,
      "जना": 2544,
      "practi": 2545,
      "ls": 2546,
      "sign": 2547,
      "वाद": 2548,
      "gifts": 2549,
      "करि": 2550,
      "स्थित": 2551,
      "ith": 2552,
      "jes": 2553,
      "मार्ग": 2554,
      "fort": 2555,
      "कीर्त": 2556,
      "एत": 2557,
      "बला": 2558,
      "सञ्चि": 2559,
      "प्रह": 2560,
      "state": 2561,
      "acqu": 2562,
      "mountains": 2563,
      "cha": 2564,
      "जाना": 2565,
      "उद्": 2566,
      "dark": 2567,
      "ima": 2568,
      "पद्य": 2569,
      "कृत्य": 2570,
      "weapon": 2571,
      "पुर": 2572,
      "नरा": 2573,
      "च्छे": 2574,
      "cro": 2575,
      "oc": 2576,
      "येत्": 2577,
      "nature": 2578,
      "bar": 2579,
      "keep": 2580,
      "consid": 2581,
      "मनो": 2582,
      "रथा": 2583,
      "परी": 2584,
      "boy": 2585,
      "eve": 2586,
      "prosperity": 2587,
      "्रु": 2588,
      "pritha": 2589,
      "lend": 2590,
      "ats": 2591,
      "ism": 2592,
      "स्ती": 2593,
      "making": 2594,
      "myself": 2595,
      "asked": 2596,
      "वचनं": 2597,
      "entire": 2598,
      "jesus": 2599,
      "लक्ष": 2600,
      "ेव": 2601,
      "reme": 2602,
      "suf": 2603,
      "cas": 2604,
      "kine": 2605,
      "panch": 2606,
      "children": 2607,
      "scri": 2608,
      "मुपा": 2609,
      "केश": 2610,
      "minis": 2611,
      "yoga": 2612,
      "afflicted": 2613,
      "soldi": 2614,
      "क्षत्रि": 2615,
      "poin": 2616,
      "पुत्रा": 2617,
      "aus": 2618,
      "स्तव": 2619,
      "ours": 2620,
      "lady": 2621,
      "sent": 2622,
      "depri": 2623,
      "रौ": 2624,
      "पृथ": 2625,
      "sire": 2626,
      "ोऽपि": 2627,
      "partha": 2628,
      "कै": 2629,
      "ward": 2630,
      "sides": 2631,
      "तया": 2632,
      "हरि": 2633,
      "पुण्य": 2634,
      "भवन्तः": 2635,
      "लिख": 2636,
      "ending": 2637,
      "ring": 2638,
      "नित्य": 2639,
      "्री": 2640,
      "नृप": 2641,
      "dhar": 2642,
      "evil": 2643,
      "कान्": 2644,
      "वर्": 2645,
      "numer": 2646,
      "aw": 2647,
      "fra": 2648,
      "victory": 2649,
      "blessed": 2650,
      "ghava": 2651,
      "वृद्ध": 2652,
      "convers": 2653,
      "यन्ति": 2654,
      "भविष्य": 2655,
      "वम्": 2656,
      "शुभ": 2657,
      "शत्रु": 2658,
      "lit": 2659,
      "last": 2660,
      "twi": 2661,
      "उत्त": 2662,
      "में": 2663,
      "सहस": 2664,
      "wonder": 2665,
      "तर्हि": 2666,
      "विशेष": 2667,
      "ught": 2668,
      "याम": 2669,
      "यश्च": 2670,
      "writ": 2671,
      "ल्या": 2672,
      "encoun": 2673,
      "approach": 2674,
      "वर्ध": 2675,
      "वाह": 2676,
      "भद्र": 2677,
      "शित": 2678,
      "sī": 2679,
      "प्रसा": 2680,
      "त्मानं": 2681,
      "picious": 2682,
      "understanding": 2683,
      "sar": 2684,
      "everything": 2685,
      "thou": 2686,
      "ग्रीव": 2687,
      "प्रभु": 2688,
      "termin": 2689,
      "prom": 2690,
      "vā": 2691,
      "want": 2692,
      "तादृ": 2693,
      "ङ्गा": 2694,
      "धृतराष्ट्र": 2695,
      "lat": 2696,
      "succeed": 2697,
      "asur": 2698,
      "पूर्वं": 2699,
      "ned": 2700,
      "जं": 2701,
      "सम्य": 2702,
      "jan": 2703,
      "former": 2704,
      "ctive": 2705,
      "तू": 2706,
      "च्यते": 2707,
      "रूपेण": 2708,
      "different": 2709,
      "महं": 2710,
      "peace": 2711,
      "ornam": 2712,
      "auspicious": 2713,
      "tree": 2714,
      "पर्": 2715,
      "विविध": 2716,
      "त्रे": 2717,
      "ग्रह": 2718,
      "eternal": 2719,
      "comp": 2720,
      "emb": 2721,
      "कदा": 2722,
      "ह्व": 2723,
      "assemb": 2724,
      "पतिः": 2725,
      "soldiers": 2726,
      "ner": 2727,
      "river": 2728,
      "force": 2729,
      "none": 2730,
      "नानि": 2731,
      "shal": 2732,
      "meth": 2733,
      "superior": 2734,
      "ज्व": 2735,
      "दिव्य": 2736,
      "path": 2737,
      "devoted": 2738,
      "white": 2739,
      "stood": 2740,
      "cir": 2741,
      "बृ": 2742,
      "सङ्": 2743,
      "ering": 2744,
      "cele": 2745,
      "भीष्": 2746,
      "dhananjaya": 2747,
      "वन्तः": 2748,
      "ण्ट्": 2749,
      "charioteer": 2750,
      "ऽऽ": 2751,
      "dead": 2752,
      "conqu": 2753,
      "प्राण": 2754,
      "gone": 2755,
      "hadeva": 2756,
      "वचः": 2757,
      "animals": 2758,
      "युध": 2759,
      "योध": 2760,
      "ाम": 2761,
      "doub": 2762,
      "पाः": 2763,
      "दैव": 2764,
      "बभूव": 2765,
      "अप": 2766,
      "ताप": 2767,
      "परम": 2768,
      "mana": 2769,
      "women": 2770,
      "भूष": 2771,
      "grace": 2772,
      "धिप": 2773,
      "bit": 2774,
      "sit": 2775,
      "नाद": 2776,
      "produ": 2777,
      "cep": 2778,
      "intelligent": 2779,
      "cks": 2780,
      "भ्यो": 2781,
      "यूयं": 2782,
      "action": 2783,
      "please": 2784,
      "contin": 2785,
      "पितामह": 2786,
      "दृश्यते": 2787,
      "ख्य": 2788,
      "पद": 2789,
      "ribut": 2790,
      "deprived": 2791,
      "sen": 2792,
      "इदान": 2793,
      "thunder": 2794,
      "supre": 2795,
      "सहा": 2796,
      "thir": 2797,
      "परे": 2798,
      "surrounded": 2799,
      "alone": 2800,
      "अस्मिन्": 2801,
      "महत्": 2802,
      "प्रय": 2803,
      "परम्": 2804,
      "sītā": 2805,
      "pure": 2806,
      "adi": 2807,
      "giving": 2808,
      "वसु": 2809,
      "yet": 2810,
      "वन्ति": 2811,
      "राक्षस": 2812,
      "cul": 2813,
      "loud": 2814,
      "tle": 2815,
      "गम्य": 2816,
      "न्द्रि": 2817,
      "पन्न": 2818,
      "मूल": 2819,
      "और": 2820,
      "cor": 2821,
      "ging": 2822,
      "अतः": 2823,
      "ममा": 2824,
      "त्मान": 2825,
      "भवद्": 2826,
      "ying": 2827,
      "lying": 2828,
      "sharp": 2829,
      "यमा": 2830,
      "विश्व": 2831,
      "क्रिया": 2832,
      "change": 2833,
      "knowing": 2834,
      "supreme": 2835,
      "भर": 2836,
      "root": 2837,
      "सिंह": 2838,
      "मभि": 2839,
      "सिद्ध": 2840,
      "पृष्ठ": 2841,
      "स्वी": 2842,
      "डा": 2843,
      "वने": 2844,
      "र्ता": 2845,
      "twice": 2846,
      "celebr": 2847,
      "हत": 2848,
      "got": 2849,
      "हृष्ट": 2850,
      "जो": 2851,
      "मस्ति": 2852,
      "cho": 2853,
      "कानि": 2854,
      "wit": 2855,
      "royal": 2856,
      "hor": 2857,
      "inter": 2858,
      "seven": 2859,
      "youn": 2860,
      "affe": 2861,
      "rites": 2862,
      "appear": 2863,
      "method": 2864,
      "cent": 2865,
      "वध": 2866,
      "क्री": 2867,
      "sweet": 2868,
      "शक्य": 2869,
      "जात": 2870,
      "यतो": 2871,
      "बृह": 2872,
      "conside": 2873,
      "page": 2874,
      "belong": 2875,
      "वायु": 2876,
      "huge": 2877,
      "gener": 2878,
      "शिख": 2879,
      "तस्मात्": 2880,
      "rain": 2881,
      "considered": 2882,
      "फलं": 2883,
      "doing": 2884,
      "कार्यं": 2885,
      "भरतर्षभ": 2886,
      "turn": 2887,
      "ुमर्ह": 2888,
      "पाणि": 2889,
      "बलं": 2890,
      "मत्त": 2891,
      "ried": 2892,
      "dear": 2893,
      "तुः": 2894,
      "feet": 2895,
      "ety": 2896,
      "sequence": 2897,
      "vat": 2898,
      "जग": 2899,
      "वयम्": 2900,
      "राय": 2901,
      "एते": 2902,
      "भूमि": 2903,
      "शरैः": 2904,
      "बद्ध": 2905,
      "held": 2906,
      "control": 2907,
      "steeds": 2908,
      "pat": 2909,
      "मति": 2910,
      "exist": 2911,
      "गृह": 2912,
      "flowers": 2913,
      "bea": 2914,
      "लः": 2915,
      "fierce": 2916,
      "कर्ष": 2917,
      "सना": 2918,
      "त्थ": 2919,
      "द्रष्ट": 2920,
      "लोका": 2921,
      "install": 2922,
      "dot": 2923,
      "rage": 2924,
      "स्त्वं": 2925,
      "eat": 2926,
      "ददा": 2927,
      "true": 2928,
      "pati": 2929,
      "sound": 2930,
      "स्थान": 2931,
      "iled": 2932,
      "दुरा": 2933,
      "rist": 2934,
      "agni": 2935,
      "strong": 2936,
      "राणां": 2937,
      "एकं": 2938,
      "gandharvas": 2939,
      "यद": 2940,
      "वासु": 2941,
      "dered": 2942,
      "क्रो": 2943,
      "diffic": 2944,
      "vit": 2945,
      "mean": 2946,
      "कुर्म": 2947,
      "holy": 2948,
      "jana": 2949,
      "मधु": 2950,
      "speech": 2951,
      "विषये": 2952,
      "षी": 2953,
      "inking": 2954,
      "ality": 2955,
      "ष्टि": 2956,
      "चेत्": 2957,
      "prof": 2958,
      "pious": 2959,
      "stem": 2960,
      "गता": 2961,
      "ado": 2962,
      "fault": 2963,
      "ब्रु": 2964,
      "ब्रू": 2965,
      "pract": 2966,
      "dha": 2967,
      "ेऽ": 2968,
      "श्रो": 2969,
      "tures": 2970,
      "rakshasas": 2971,
      "ped": 2972,
      "गृह्य": 2973,
      "शृणु": 2974,
      "तमा": 2975,
      "ित्वा": 2976,
      "ंश": 2977,
      "told": 2978,
      "प्रभो": 2979,
      "birds": 2980,
      "ont": 2981,
      "div": 2982,
      "पाण्डु": 2983,
      "पीड": 2984,
      "्याः": 2985,
      "nothing": 2986,
      "quickly": 2987,
      "view": 2988,
      "dischar": 2989,
      "दीप्त": 2990,
      "रत्": 2991,
      "ques": 2992,
      "रिव": 2993,
      "prince": 2994,
      "सर्वान्": 2995,
      "10": 2996,
      "स्मृ": 2997,
      "detail": 2998,
      "law": 2999,
      "षं": 3000,
      "else": 3001,
      "salut": 3002,
      ".”": 3003,
      "दिव": 3004,
      "चेत": 3005,
      "वासि": 3006,
      "love": 3007,
      "yu": 3008,
      "गौ": 3009,
      "संनि": 3010,
      "lakş": 3011,
      "ascetics": 3012,
      "यीशु": 3013,
      "satyaki": 3014,
      "पराक्र": 3015,
      "meet": 3016,
      "intelligence": 3017,
      "sm": 3018,
      "वन्त": 3019,
      "परस्": 3020,
      "worthy": 3021,
      "sinful": 3022,
      "single": 3023,
      "महात्मनः": 3024,
      "mod": 3025,
      "वय": 3026,
      "flam": 3027,
      "cip": 3028,
      "kshatriya": 3029,
      "vows": 3030,
      "sacrificial": 3031,
      "touch": 3032,
      "cow": 3033,
      "furn": 3034,
      "भक्त": 3035,
      "स्क": 3036,
      "व्याघ्र": 3037,
      "lin": 3038,
      "ss": 3039,
      "वज": 3040,
      "म्भ": 3041,
      "loo": 3042,
      "rāghava": 3043,
      "encounter": 3044,
      "मृग": 3045,
      "mark": 3046,
      "draup": 3047,
      "zing": 3048,
      "पार्": 3049,
      "साग": 3050,
      "इत्यु": 3051,
      "followed": 3052,
      "destroyed": 3053,
      "obtained": 3054,
      "free": 3055,
      "rang": 3056,
      "acquired": 3057,
      "mor": 3058,
      "bear": 3059,
      "मुनि": 3060,
      "किञ्च": 3061,
      "arri": 3062,
      "प्रेष": 3063,
      "विन": 3064,
      "वाम": 3065,
      "लभ": 3066,
      "lls": 3067,
      "image": 3068,
      "ain": 3069,
      "fect": 3070,
      "हृद": 3071,
      "proceeded": 3072,
      "ery": 3073,
      "fare": 3074,
      "inj": 3075,
      "विज": 3076,
      "सेना": 3077,
      "शोक": 3078,
      "liber": 3079,
      "जगाम": 3080,
      "क्षी": 3081,
      "bodies": 3082,
      "mil": 3083,
      "tem": 3084,
      "alk": 3085,
      "ेष्व": 3086,
      "पुत्रं": 3087,
      "रथि": 3088,
      "burning": 3089,
      "beauty": 3090,
      "zed": 3091,
      "वक्त": 3092,
      "त्स": 3093,
      "मध्य": 3094,
      "पद्": 3095,
      "हस्त": 3096,
      "युगे": 3097,
      "struct": 3098,
      "highest": 3099,
      "pleasure": 3100,
      "फा": 3101,
      "वद्": 3102,
      "स्थितः": 3103,
      "furnished": 3104,
      "tool": 3105,
      "renoun": 3106,
      "kshatriyas": 3107,
      "कृत्": 3108,
      "बाहु": 3109,
      "waters": 3110,
      "yum": 3111,
      "घु": 3112,
      "जल": 3113,
      "शोभ": 3114,
      "सूत": 3115,
      "गृही": 3116,
      "tw": 3117,
      "पुत्रो": 3118,
      "केव": 3119,
      "स्त्री": 3120,
      "अथवा": 3121,
      "still": 3122,
      "शेष": 3123,
      "ship": 3124,
      "crow": 3125,
      "ual": 3126,
      "shot": 3127,
      "द्रु": 3128,
      "destroyer": 3129,
      "hur": 3130,
      "vice": 3131,
      "गच्छति": 3132,
      "horse": 3133,
      "maņa": 3134,
      "इत्यत्र": 3135,
      "freed": 3136,
      "serv": 3137,
      "च्छामि": 3138,
      "rākşasas": 3139,
      "ses": 3140,
      "पदा": 3141,
      "यश": 3142,
      "effulgent": 3143,
      "asuras": 3144,
      "draupadi": 3145,
      "ट्र": 3146,
      "asana": 3147,
      "निव": 3148,
      "abode": 3149,
      "incre": 3150,
      "त्मनः": 3151,
      "righteousness": 3152,
      "ितुं": 3153,
      "deep": 3154,
      "निय": 3155,
      "हार": 3156,
      "कर्मा": 3157,
      "stay": 3158,
      "कृप": 3159,
      "दक्षिण": 3160,
      "inte": 3161,
      "incapable": 3162,
      "feel": 3163,
      "need": 3164,
      "krit": 3165,
      "गमि": 3166,
      "गतम्": 3167,
      "तत्त्व": 3168,
      "र्णं": 3169,
      "during": 3170,
      "passed": 3171,
      "scrip": 3172,
      "--": 3173,
      "duty": 3174,
      "भिन्न": 3175,
      "श्रू": 3176,
      "प्रभा": 3177,
      "slayer": 3178,
      "साम्": 3179,
      "प्रत्यु": 3180,
      "qualities": 3181,
      "गान्": 3182,
      "बहू": 3183,
      "ोद": 3184,
      "top": 3185,
      "कुश": 3186,
      "sight": 3187,
      "साय": 3188,
      "राजेन्द्र": 3189,
      "दिष्ट": 3190,
      "महाबलः": 3191,
      "ened": 3192,
      "ान्व": 3193,
      "ravana": 3194,
      "book": 3195,
      "due": 3196,
      "vasudeva": 3197,
      ".'": 3198,
      "ror": 3199,
      "जग्": 3200,
      "tow": 3201,
      "द्भु": 3202,
      "जानी": 3203,
      "home": 3204,
      "je": 3205,
      "चन्द्र": 3206,
      "ible": 3207,
      "तन": 3208,
      "mail": 3209,
      "neither": 3210,
      "sins": 3211,
      "yumna": 3212,
      "पत्": 3213,
      "lling": 3214,
      "मुत्": 3215,
      "कुर्मः": 3216,
      "वश्य": 3217,
      "कुर्या": 3218,
      "itself": 3219,
      "पाव": 3220,
      "fun": 3221,
      "लै": 3222,
      "conf": 3223,
      "ounds": 3224,
      "box": 3225,
      "duly": 3226,
      "ton": 3227,
      "vyas": 3228,
      "fold": 3229,
      "सत्तम": 3230,
      "कृति": 3231,
      "स्वयं": 3232,
      "भूत्वा": 3233,
      "pandava": 3234,
      "भोज": 3235,
      "कौन्ते": 3236,
      "यन्त": 3237,
      "app": 3238,
      "fav": 3239,
      "क्षं": 3240,
      "exer": 3241,
      "air": 3242,
      "user": 3243,
      "संग्रा": 3244,
      "ानी": 3245,
      "णाम्": 3246,
      "रथं": 3247,
      "sci": 3248,
      "xed": 3249,
      "teach": 3250,
      "doubt": 3251,
      "ान्तं": 3252,
      "मित्त": 3253,
      "string": 3254,
      "acquire": 3255,
      "og": 3256,
      "णस्य": 3257,
      "दृढ": 3258,
      "repe": 3259,
      "तेजा": 3260,
      "रूपं": 3261,
      "eye": 3262,
      "प्रिय": 3263,
      ",-": 3264,
      "लव": 3265,
      "stra": 3266,
      "दारु": 3267,
      "das": 3268,
      "mine": 3269,
      "ran": 3270,
      "सदृ": 3271,
      "विधा": 3272,
      "fair": 3273,
      "xi": 3274,
      "रिय": 3275,
      "नैव": 3276,
      "मन्": 3277,
      "विनि": 3278,
      "भ्रातृ": 3279,
      "reach": 3280,
      "mou": 3281,
      "ष्ये": 3282,
      "depar": 3283,
      "ising": 3284,
      "mom": 3285,
      "chast": 3286,
      "तात": 3287,
      "foot": 3288,
      "minded": 3289,
      "sleep": 3290,
      "eth": 3291,
      "सत्त्व": 3292,
      "already": 3293,
      "युद्धे": 3294,
      "inform": 3295,
      "्यते": 3296,
      "ards": 3297,
      "निर": 3298,
      "lakşmaņa": 3299,
      "!\"": 3300,
      "eas": 3301,
      "ोपरि": 3302,
      "hair": 3303,
      "sake": 3304,
      "conversant": 3305,
      "wives": 3306,
      "नीम्": 3307,
      "मोह": 3308,
      "विद्यते": 3309,
      "grow": 3310,
      "ists": 3311,
      "राज्य": 3312,
      "dwell": 3313,
      "र्प": 3314,
      "iting": 3315,
      "lied": 3316,
      "सम्प्र": 3317,
      "master": 3318,
      "अग्र": 3319,
      "vere": 3320,
      "fered": 3321,
      "श्म": 3322,
      "वासुदेव": 3323,
      "तरं": 3324,
      "org": 3325,
      "forms": 3326,
      "protected": 3327,
      "अह": 3328,
      "कट": 3329,
      "बल्": 3330,
      "ोन्य": 3331,
      "bs": 3332,
      "दै": 3333,
      "मव": 3334,
      "कृतम्": 3335,
      "agree": 3336,
      "array": 3337,
      "ula": 3338,
      "project": 3339,
      "hard": 3340,
      "owed": 3341,
      "load": 3342,
      "ष्यन्ति": 3343,
      "विद्या": 3344,
      "text": 3345,
      "सत्": 3346,
      "mace": 3347,
      "युग": 3348,
      "oked": 3349,
      "headed": 3350,
      "मिच्छ": 3351,
      "exam": 3352,
      "gift": 3353,
      "निमित्त": 3354,
      "सुग्रीव": 3355,
      "कथा": 3356,
      "तै": 3357,
      "fame": 3358,
      "consider": 3359,
      "asura": 3360,
      "धन": 3361,
      "ेति": 3362,
      "ini": 3363,
      "hundreds": 3364,
      "lected": 3365,
      "ब्रह्": 3366,
      "fruit": 3367,
      "worshipped": 3368,
      "ornaments": 3369,
      "mus": 3370,
      "शस्त्र": 3371,
      "सत": 3372,
      "rāvana": 3373,
      "cus": 3374,
      "assa": 3375,
      "utter": 3376,
      "splend": 3377,
      "भिर": 3378,
      "yama": 3379,
      "ān": 3380,
      "युष्म": 3381,
      "mouth": 3382,
      "धार्त": 3383,
      "दोष": 3384,
      "अद्य": 3385,
      "ream": 3386,
      "कृष्": 3387,
      "र्थे": 3388,
      "जाल": 3389,
      "शाः": 3390,
      "शीघ्र": 3391,
      "wis": 3392,
      "जन्": 3393,
      "ordin": 3394,
      "ture": 3395,
      "woman": 3396,
      "रज": 3397,
      "विदु": 3398,
      "rivers": 3399,
      "devo": 3400,
      "colour": 3401,
      "ascend": 3402,
      "mission": 3403,
      "grandfather": 3404,
      "मेन": 3405,
      "ततस्त": 3406,
      "मिवा": 3407,
      "moved": 3408,
      "िताम्": 3409,
      "हुः": 3410,
      "star": 3411,
      "गाः": 3412,
      "ignor": 3413,
      "पै": 3414,
      "पुरो": 3415,
      "युः": 3416,
      "mob": 3417,
      "पितृ": 3418,
      "brea": 3419,
      "पश्चात्": 3420,
      "भयं": 3421,
      "instru": 3422,
      "raged": 3423,
      "practice": 3424,
      "येत": 3425,
      "above": 3426,
      "india": 3427,
      "wonderful": 3428,
      "कम": 3429,
      "कपि": 3430,
      "around": 3431,
      "बोध": 3432,
      "शान्त": 3433,
      "pain": 3434,
      "affection": 3435,
      "aust": 3436,
      "घाट": 3437,
      "र्जुन": 3438,
      "संशयः": 3439,
      "यतु": 3440,
      "दुष्": 3441,
      "द्युम्": 3442,
      "शिक्ष": 3443,
      "करोमि": 3444,
      "शक्ति": 3445,
      ":\"\"\"": 3446,
      "ately": 3447,
      "ानाम": 3448,
      "asceticism": 3449,
      "satis": 3450,
      "दुर्योधन": 3451,
      "button": 3452,
      "achi": 3453,
      "begin": 3454,
      "शन्": 3455,
      "ular": 3456,
      "sil": 3457,
      "ञ्चा": 3458,
      "amongst": 3459,
      "fled": 3460,
      "vent": 3461,
      "श्चि": 3462,
      "grant": 3463,
      "dden": 3464,
      "विष्ण": 3465,
      "भवतां": 3466,
      "लाः": 3467,
      "address": 3468,
      "cheer": 3469,
      "कश्चि": 3470,
      "moment": 3471,
      "family": 3472,
      "क्लिक्": 3473,
      "lam": 3474,
      "वरा": 3475,
      "ेष्वा": 3476,
      "बी": 3477,
      "ator": 3478,
      "वृक्ष": 3479,
      "boon": 3480,
      "wisdom": 3481,
      "क्ष्ण": 3482,
      "उपयुज्य": 3483,
      "midst": 3484,
      "यै": 3485,
      "faith": 3486,
      "mobile": 3487,
      "sea": 3488,
      "व्याध": 3489,
      "fighting": 3490,
      "import": 3491,
      "little": 3492,
      "महातेजा": 3493,
      "gives": 3494,
      "दीर्": 3495,
      "subjects": 3496,
      "depend": 3497,
      "speedily": 3498,
      "dana": 3499,
      "ux": 3500,
      "बह": 3501,
      "शास": 3502,
      "पृच्छ": 3503,
      "since": 3504,
      "anxi": 3505,
      "स्त्य": 3506,
      "स्पृ": 3507,
      "निर्म": 3508,
      "च्छि": 3509,
      "रन्": 3510,
      "refu": 3511,
      "sho": 3512,
      "exc": 3513,
      "regarding": 3514,
      ":,": 3515,
      "विद्ध": 3516,
      "पश्यन्तु": 3517,
      "search": 3518,
      "beli": 3519,
      "भिश्च": 3520,
      "धृष्ट": 3521,
      "oth": 3522,
      "ently": 3523,
      "ताम": 3524,
      "laid": 3525,
      "युक्तं": 3526,
      "remain": 3527,
      "क्ष्यामि": 3528,
      "शक्नुमः": 3529,
      "smi": 3530,
      "नार": 3531,
      "सहसा": 3532,
      "लक्ष्मण": 3533,
      "usion": 3534,
      "system": 3535,
      "reason": 3536,
      "त्तमः": 3537,
      "ज्ञे": 3538,
      "pair": 3539,
      "महाबाहो": 3540,
      "विशाम्": 3541,
      "found": 3542,
      "कार्": 3543,
      "मेण्ट्": 3544,
      "देह": 3545,
      "सर्वभूत": 3546,
      "पञ्चा": 3547,
      "ष्व": 3548,
      "प्रती": 3549,
      "सात्य": 3550,
      "pose": 3551,
      "asts": 3552,
      "योक्त": 3553,
      "seek": 3554,
      "स्मान्": 3555,
      "टोरिय": 3556,
      "नात्": 3557,
      "प्स": 3558,
      "तत्रा": 3559,
      "charact": 3560,
      "रान्": 3561,
      "check": 3562,
      "accompan": 3563,
      "साधु": 3564,
      "ज्वल": 3565,
      "eri": 3566,
      "प्रभ": 3567,
      "deer": 3568,
      "simi": 3569,
      "स्यात्": 3570,
      "heads": 3571,
      "latter": 3572,
      "fal": 3573,
      "ितवान्": 3574,
      "nak": 3575,
      "vanqu": 3576,
      "puri": 3577,
      "ding": 3578,
      "low": 3579,
      "vati": 3580,
      "weak": 3581,
      "flu": 3582,
      "relig": 3583,
      "scriptures": 3584,
      "fac": 3585,
      "raks": 3586,
      "consequence": 3587,
      "ङ्ख": 3588,
      "sible": 3589,
      "पश्यामः": 3590,
      "विशाम्पते": 3591,
      "छा": 3592,
      "थे": 3593,
      "माम्": 3594,
      "decked": 3595,
      "कर्मणा": 3596,
      "vrish": 3597,
      "बो": 3598,
      "atas": 3599,
      "deser": 3600,
      "वज्र": 3601,
      "En": 3602,
      "राजान": 3603,
      "सहस्राणि": 3604,
      "तैः": 3605,
      "शय": 3606,
      "ests": 3607,
      "tab": 3608,
      "स्थाय": 3609,
      "प्रीति": 3610,
      "darkness": 3611,
      "similar": 3612,
      "quar": 3613,
      "whatever": 3614,
      "shakra": 3615,
      "deity": 3616,
      "firm": 3617,
      "hermit": 3618,
      "क्षिप्र": 3619,
      "prote": 3620,
      "स्यति": 3621,
      "राज्यं": 3622,
      "गृह्": 3623,
      "नव": 3624,
      "विष्ट": 3625,
      "consu": 3626,
      "णाय": 3627,
      "ेत": 3628,
      "aste": 3629,
      "संयुगे": 3630,
      "ेषा": 3631,
      "ट्यु": 3632,
      "deities": 3633,
      "महता": 3634,
      "सञ्चिका": 3635,
      "nob": 3636,
      "hath": 3637,
      "स्त्रा": 3638,
      "श्रा": 3639,
      "ended": 3640,
      "lost": 3641,
      "शिर": 3642,
      "कार्या": 3643,
      "delighted": 3644,
      "company": 3645,
      "near": 3646,
      "round": 3647,
      "vow": 3648,
      "गताः": 3649,
      "ju": 3650,
      "|\"\"\"": 3651,
      "खे": 3652,
      "ख्ये": 3653,
      "ग्ध": 3654,
      "kri": 3655,
      "ान्ये": 3656,
      "adyumna": 3657,
      "fortun": 3658,
      "वह": 3659,
      "हत्वा": 3660,
      "नाय": 3661,
      "uttered": 3662,
      "सर्वशः": 3663,
      "placed": 3664,
      "अभ्य": 3665,
      "श्वर": 3666,
      "द्वित": 3667,
      "शिष्य": 3668,
      "pie": 3669,
      "spective": 3670,
      "narada": 3671,
      "surely": 3672,
      "accompanied": 3673,
      "लब्ध": 3674,
      "ased": 3675,
      "सीता": 3676,
      "भगवान्": 3677,
      "second": 3678,
      "काश": 3679,
      "समन्त": 3680,
      "च्चा": 3681,
      "वित्र": 3682,
      "either": 3683,
      "velo": 3684,
      "गिरि": 3685,
      "received": 3686,
      "shalya": 3687,
      "माय": 3688,
      "mah": 3689,
      "vishnu": 3690,
      "vata": 3691,
      "अन्त": 3692,
      "वनं": 3693,
      "ुर्": 3694,
      "ट्युटोरिय": 3695,
      "धू": 3696,
      "हर्ष": 3697,
      "met": 3698,
      "yours": 3699,
      "gram": 3700,
      "क्रुद्धो": 3701,
      "difficult": 3702,
      "kra": 3703,
      "ref": 3704,
      "resu": 3705,
      "ries": 3706,
      "न्यू": 3707,
      "trans": 3708,
      "र्दू": 3709,
      "acquires": 3710,
      "vision": 3711,
      "pit": 3712,
      "कैः": 3713,
      "ining": 3714,
      "incl": 3715,
      "जायते": 3716,
      "प्ता": 3717,
      "gry": 3718,
      "युष्माकं": 3719,
      "काञ्च": 3720,
      "point": 3721,
      "lived": 3722,
      "साः": 3723,
      "शास्त्र": 3724,
      "lion": 3725,
      "समे": 3726,
      "दाः": 3727,
      "सत्यं": 3728,
      "चोद": 3729,
      "जग्मु": 3730,
      "eved": 3731,
      "gre": 3732,
      "tir": 3733,
      "रेव": 3734,
      "सृज": 3735,
      "गन्धर्व": 3736,
      "उद्घाट": 3737,
      "refuge": 3738,
      "hun": 3739,
      "सर्वाणि": 3740,
      "देशं": 3741,
      "looking": 3742,
      "īva": 3743,
      "गतं": 3744,
      "ददर्श": 3745,
      "मथ": 3746,
      "throw": 3747,
      "cient": 3748,
      "presence": 3749,
      "slaying": 3750,
      "धनंज": 3751,
      "rays": 3752,
      "em": 3753,
      "ित्र": 3754,
      "यामः": 3755,
      "grīva": 3756,
      "offer": 3757,
      "close": 3758,
      "शब्द": 3759,
      "snakes": 3760,
      "riches": 3761,
      "त्ति": 3762,
      "राघव": 3763,
      "woods": 3764,
      "धान": 3765,
      "क्षो": 3766,
      "महान्": 3767,
      "पुष्प": 3768,
      "टी": 3769,
      "किम": 3770,
      "remember": 3771,
      "ित्त": 3772,
      "option": 3773,
      "धर्मराज": 3774,
      "bows": 3775,
      "fearful": 3776,
      "निर्मा": 3777,
      "advan": 3778,
      "table": 3779,
      "laks": 3780,
      "hara": 3781,
      "whether": 3782,
      "इदानीं": 3783,
      "religion": 3784,
      "position": 3785,
      "narayana": 3786,
      "small": 3787,
      "fles": 3788,
      "wr": 3789,
      "शौ": 3790,
      "ितौ": 3791,
      "प्रया": 3792,
      "श्वरः": 3793,
      "ग्राह": 3794,
      "sorts": 3795,
      "por": 3796,
      "ute": 3797,
      "carry": 3798,
      "accomplish": 3799,
      "dharma": 3800,
      "saras": 3801,
      "link": 3802,
      "करे": 3803,
      "संस्": 3804,
      "सर्वेषां": 3805,
      "स्थि": 3806,
      "स्मात्": 3807,
      "hence": 3808,
      "ैर्य": 3809,
      "पुत्रः": 3810,
      "len": 3811,
      "सभा": 3812,
      "स्ना": 3813,
      "हाय": 3814,
      "मुख्य": 3815,
      "garland": 3816,
      "san": 3817,
      "क्षत्र": 3818,
      "मप": 3819,
      "तेषा": 3820,
      "स्थं": 3821,
      "वृत्ति": 3822,
      "vidura": 3823,
      "fallen": 3824,
      "नदी": 3825,
      "हिता": 3826,
      "vel": 3827,
      "hearts": 3828,
      "वरः": 3829,
      "seated": 3830,
      "christ": 3831,
      "सेव": 3832,
      "प्रकाश": 3833,
      "panchalas": 3834,
      "sugrīva": 3835,
      "णात्": 3836,
      "serp": 3837,
      "suffer": 3838,
      "ट्युटोरियल्": 3839,
      "pun": 3840,
      "जु": 3841,
      "fool": 3842,
      "value": 3843,
      "ञ्जलि": 3844,
      "vy": 3845,
      "रक्त": 3846,
      "शिष्ट": 3847,
      "युधिष्ठिरः": 3848,
      "voice": 3849,
      "मद": 3850,
      "यानि": 3851,
      "न्ना": 3852,
      "शार्दू": 3853,
      "युद्धं": 3854,
      "chang": 3855,
      "shower": 3856,
      "sooth": 3857,
      "print": 3858,
      "gious": 3859,
      "effulgence": 3860,
      "आत्म": 3861,
      "ल्प": 3862,
      "retch": 3863,
      "अस्माभिः": 3864,
      "respective": 3865,
      "ras": 3866,
      "न्त्य": 3867,
      "क्षमा": 3868,
      "घ्न": 3869,
      "mort": 3870,
      "गदा": 3871,
      "thinking": 3872,
      "anas": 3873,
      "राणि": 3874,
      "medi": 3875,
      "flesh": 3876,
      "पठ": 3877,
      "blazing": 3878,
      "fought": 3879,
      "महेष्वा": 3880,
      "पुरं": 3881,
      "द्रष्टुं": 3882,
      "दीर्घ": 3883,
      "pes": 3884,
      "adored": 3885,
      "ciples": 3886,
      "दौ": 3887,
      "हवे": 3888,
      "ison": 3889,
      "wield": 3890,
      "प्रदर्श": 3891,
      "gover": 3892,
      "ounding": 3893,
      "मनसा": 3894,
      "details": 3895,
      "sis": 3896,
      "ughter": 3897,
      "ितान्": 3898,
      "रामं": 3899,
      "महर्ष": 3900,
      "त्वर": 3901,
      "write": 3902,
      "formerly": 3903,
      "मार्": 3904,
      "याव": 3905,
      "देवं": 3906,
      "displays": 3907,
      "प्रभुः": 3908,
      "dess": 3909,
      "भक्ष": 3910,
      "शन": 3911,
      "orted": 3912,
      "प्रव": 3913,
      "ury": 3914,
      "spirit": 3915,
      "splendour": 3916,
      "protection": 3917,
      "00": 3918,
      "stat": 3919,
      "रामः": 3920,
      "ङ्ग्": 3921,
      "ष्ठा": 3922,
      "ज्ञाय": 3923,
      "attained": 3924,
      "cop": 3925,
      "rect": 3926,
      "ratha": 3927,
      "dec": 3928,
      "ान्ध": 3929,
      "पुण": 3930,
      "साद": 3931,
      "कृतः": 3932,
      "वृष": 3933,
      "attribut": 3934,
      "नोमि": 3935,
      "मृत्यु": 3936,
      "commit": 3937,
      "hermitage": 3938,
      "favour": 3939,
      "forces": 3940,
      "month": 3941,
      "ution": 3942,
      "प्रण": 3943,
      "द्यु": 3944,
      "ganga": 3945,
      "divine": 3946,
      "nal": 3947,
      "os": 3948,
      "रामो": 3949,
      "aya": 3950,
      "goddess": 3951,
      "tras": 3952,
      "numerous": 3953,
      "समन्ततः": 3954,
      "nis": 3955,
      "गज": 3956,
      "मतः": 3957,
      "वाप्": 3958,
      "साह": 3959,
      "bolt": 3960,
      "पश्यामि": 3961,
      "सततं": 3962,
      "कन्या": 3963,
      "बहि": 3964,
      "madh": 3965,
      "दार": 3966,
      "रुवाच": 3967,
      "ङ्क्त": 3968,
      "defeated": 3969,
      "complete": 3970,
      "र्णा": 3971,
      "ously": 3972,
      "स्यामि": 3973,
      "occas": 3974,
      "कच्च": 3975,
      "ख्री": 3976,
      "clean": 3977,
      "अभ्या": 3978,
      "aren": 3979,
      "exp": 3980,
      "pet": 3981,
      "kaura": 3982,
      "marks": 3983,
      "layer": 3984,
      "itude": 3985,
      "bi": 3986,
      "wounded": 3987,
      "bearing": 3988,
      "getic": 3989,
      "spea": 3990,
      "मन्ये": 3991,
      "तस्माद्": 3992,
      "sw": 3993,
      "resol": 3994,
      "याति": 3995,
      "comb": 3996,
      "truly": 3997,
      "सोम": 3998,
      "cru": 3999,
      "pour": 4000,
      "मयि": 4001,
      "energetic": 4002,
      "समुद्र": 4003,
      "शरीर": 4004,
      "honour": 4005,
      "श्वास": 4006,
      "तच्छ": 4007,
      "यद्य": 4008,
      "र्वृ": 4009,
      "स्माकं": 4010,
      "chastis": 4011,
      "लेन": 4012,
      "परमं": 4013,
      "gir": 4014,
      "ञ्छ": 4015,
      "युध्य": 4016,
      "धृष्टद्युम्": 4017,
      "fast": 4018,
      "gas": 4019,
      "ises": 4020,
      "separ": 4021,
      "स्ततः": 4022,
      "चार्य": 4023,
      "bharatas": 4024,
      "posed": 4025,
      "departed": 4026,
      "dam": 4027,
      "khand": 4028,
      "learning": 4029,
      "hanum": 4030,
      "eight": 4031,
      "अयं": 4032,
      "तान": 4033,
      "contain": 4034,
      "ested": 4035,
      "दुर्म": 4036,
      "hostile": 4037,
      "character": 4038,
      "step": 4039,
      "kripa": 4040,
      "गर्": 4041,
      "सङ्ग": 4042,
      "ऽपि": 4043,
      "विव्याध": 4044,
      "spring": 4045,
      "els": 4046,
      "appears": 4047,
      "directions": 4048,
      "discharged": 4049,
      "In": 4050,
      "कन्": 4051,
      "मारु": 4052,
      "देशे": 4053,
      "leave": 4054,
      "आगच्छ": 4055,
      "iss": 4056,
      "रामस्य": 4057,
      "तेजसा": 4058,
      "ented": 4059,
      "showers": 4060,
      "वीर्यवान्": 4061,
      "वती": 4062,
      "thee": 4063,
      "परमा": 4064,
      "que": 4065,
      "मानो": 4066,
      "program": 4067,
      "किंचि": 4068,
      "सहस्रशः": 4069,
      "replied": 4070,
      "caused": 4071,
      "brary": 4072,
      "जनाः": 4073,
      "स्तू": 4074,
      "code": 4075,
      "cover": 4076,
      "getting": 4077,
      "च्छेद": 4078,
      "case": 4079,
      "मनः": 4080,
      "रै": 4081,
      "tiv": 4082,
      "इत्यस्मै": 4083,
      "slaughter": 4084,
      "प्रेक्ष्य": 4085,
      "महारथः": 4086,
      "half": 4087,
      "circ": 4088,
      "भय": 4089,
      "हितं": 4090,
      "offered": 4091,
      "enraged": 4092,
      "cher": 4093,
      "संख्ये": 4094,
      "killing": 4095,
      "avail": 4096,
      "अत": 4097,
      "्वं": 4098,
      "ध्वं": 4099,
      "vyasa": 4100,
      "उपा": 4101,
      "teen": 4102,
      "arming": 4103,
      "window": 4104,
      "चल": 4105,
      "डे": 4106,
      "बलि": 4107,
      "निज": 4108,
      "पुरु": 4109,
      "साम": 4110,
      "ource": 4111,
      "रोच": 4112,
      "output": 4113,
      "religious": 4114,
      "cke": 4115,
      "assign": 4116,
      "रेन्द्र": 4117,
      "समन्व": 4118,
      "शक्नोति": 4119,
      "milk": 4120,
      ".'\"": 4121,
      "jas": 4122,
      "ध्रु": 4123,
      "कुमा": 4124,
      "भगव": 4125,
      "question": 4126,
      "चु": 4127,
      "प्रमा": 4128,
      "प्राज्ञ": 4129,
      "plants": 4130,
      "pride": 4131,
      "desires": 4132,
      "धार्तराष्ट्र": 4133,
      "youth": 4134,
      "iring": 4135,
      "suta": 4136,
      "opp": 4137,
      "versed": 4138,
      "वर्षा": 4139,
      "ब्रूहि": 4140,
      "emp": 4141,
      "मुवाच": 4142,
      "parts": 4143,
      "यिष्यामि": 4144,
      "युक्ता": 4145,
      "keshava": 4146,
      "resembled": 4147,
      "cat": 4148,
      "angry": 4149,
      "anda": 4150,
      "तद्व": 4151,
      "लभ्य": 4152,
      "श्रि": 4153,
      "प्रत्ये": 4154,
      "welfare": 4155,
      "bhri": 4156,
      "test": 4157,
      "पर्या": 4158,
      "etc": 4159,
      "tran": 4160,
      "भुवि": 4161,
      "laksmana": 4162,
      "ख्रीष्ट": 4163,
      "brow": 4164,
      "ji": 4165,
      "ko": 4166,
      "षः": 4167,
      "anu": 4168,
      "ितुम्": 4169,
      "निर्ज": 4170,
      "spot": 4171,
      "misery": 4172,
      "प्राप्नु": 4173,
      "agreeable": 4174,
      "vind": 4175,
      "यतां": 4176,
      "न्तुं": 4177,
      "pray": 4178,
      "ub": 4179,
      "गते": 4180,
      "क्ट्": 4181,
      "महद्": 4182,
      "मुहू": 4183,
      "expla": 4184,
      "vide": 4185,
      "ility": 4186,
      "bestow": 4187,
      "विंश": 4188,
      "दिश": 4189,
      "ोऽथ": 4190,
      "हता": 4191,
      "thereat": 4192,
      "चाल": 4193,
      "रथे": 4194,
      "वानर": 4195,
      "bey": 4196,
      "forsooth": 4197,
      "मुद्रा": 4198,
      "repeated": 4199,
      "isting": 4200,
      "नाभि": 4201,
      "चिन्व": 4202,
      "aratha": 4203,
      "टङ्कयन्तु": 4204,
      "रथाः": 4205,
      "nakula": 4206,
      "cry": 4207,
      "lu": 4208,
      "lust": 4209,
      "mul": 4210,
      "इत्या": 4211,
      "शल्य": 4212,
      "ों": 4213,
      "rema": 4214,
      "मात": 4215,
      "भवन्त": 4216,
      "observ": 4217,
      "witness": 4218,
      "bal": 4219,
      "charming": 4220,
      "मेघ": 4221,
      "रिं": 4222,
      "flict": 4223,
      "ignorance": 4224,
      "danavas": 4225,
      "पपात": 4226,
      "ील्": 4227,
      "tom": 4228,
      "वार्य": 4229,
      "feat": 4230,
      "राजानं": 4231,
      "स्त्रं": 4232,
      "roar": 4233,
      "परित": 4234,
      "works": 4235,
      "कुरू": 4236,
      "च्छ्र": 4237,
      "sinless": 4238,
      "arrived": 4239,
      "chastiser": 4240,
      "beh": 4241,
      "wered": 4242,
      "sudden": 4243,
      "cloth": 4244,
      "संग्रामे": 4245,
      "आवश्य": 4246,
      "भर्त": 4247,
      "cken": 4248,
      "drink": 4249,
      "answered": 4250,
      "sahadeva": 4251,
      "takes": 4252,
      "understand": 4253,
      "void": 4254,
      "male": 4255,
      "कानां": 4256,
      "नाराय": 4257,
      "gems": 4258,
      "aband": 4259,
      "ोऽयं": 4260,
      "पूर": 4261,
      "namely": 4262,
      "black": 4263,
      "performing": 4264,
      "purpose": 4265,
      "describe": 4266,
      "slash": 4267,
      "आप": 4268,
      "शकु": 4269,
      "ान्या": 4270,
      "प्रत्या": 4271,
      "कारण": 4272,
      "भार्या": 4273,
      "although": 4274,
      "glory": 4275,
      "itation": 4276,
      "स्तेन": 4277,
      "मेवा": 4278,
      "समये": 4279,
      "cible": 4280,
      "rent": 4281,
      "शंस": 4282,
      "योगं": 4283,
      ":।": 4284,
      "भं": 4285,
      "itra": 4286,
      "sages": 4287,
      "धर्मात्मा": 4288,
      "awk": 4289,
      "science": 4290,
      "मब्रवीत्": 4291,
      "लां": 4292,
      "विस्म": 4293,
      "क्ला": 4294,
      "goes": 4295,
      "लोक्य": 4296,
      "merits": 4297,
      "stricken": 4298,
      "एका": 4299,
      "तिक्र": 4300,
      "स्तथ": 4301,
      "manif": 4302,
      "loved": 4303,
      "स्थानं": 4304,
      "standard": 4305,
      "gad": 4306,
      "स्ने": 4307,
      "short": 4308,
      "सुरा": 4309,
      "रोह": 4310,
      "जम्": 4311,
      "spread": 4312,
      "tears": 4313,
      "जाः": 4314,
      "kai": 4315,
      "द्वारा": 4316,
      "कर्म्": 4317,
      "young": 4318,
      "Enter": 4319,
      "hanumān": 4320,
      "fat": 4321,
      "fla": 4322,
      "kin": 4323,
      "vin": 4324,
      "अनेन": 4325,
      "ita": 4326,
      "माश्र": 4327,
      "मुत्तमम्": 4328,
      "formed": 4329,
      "धर्मं": 4330,
      "कर्ता": 4331,
      ";\"\"\"": 4332,
      "मना": 4333,
      "compass": 4334,
      "endowed": 4335,
      "शक्नुवन्ति": 4336,
      "conscious": 4337,
      "विन्द": 4338,
      "hell": 4339,
      "कालं": 4340,
      "मान्य": 4341,
      "पृष्ट": 4342,
      "relati": 4343,
      "20": 4344,
      "cou": 4345,
      "treat": 4346,
      "अश्व": 4347,
      "षो": 4348,
      "decl": 4349,
      "lies": 4350,
      "petu": 4351,
      "त्मना": 4352,
      "समुत्": 4353,
      "सृज्य": 4354,
      "घोरं": 4355,
      "धर्मे": 4356,
      "अधिक": 4357,
      "noble": 4358,
      "bhrigu": 4359,
      "pac": 4360,
      "range": 4361,
      "चक्ष": 4362,
      "पथ": 4363,
      "accept": 4364,
      "बे": 4365,
      "season": 4366,
      "विरा": 4367,
      "निशा": 4368,
      "cts": 4369,
      "सार्ध": 4370,
      "धाः": 4371,
      "celebrated": 4372,
      "cate": 4373,
      "पुत्रस्य": 4374,
      "observe": 4375,
      "dri": 4376,
      "mand": 4377,
      "maid": 4378,
      "महि": 4379,
      "णार्थं": 4380,
      "गच्छा": 4381,
      "returned": 4382,
      "अनन्तरं": 4383,
      "accomplished": 4384,
      "devotion": 4385,
      "jud": 4386,
      "इवा": 4387,
      "खि": 4388,
      "गद": 4389,
      "घट": 4390,
      "untu": 4391,
      "const": 4392,
      "चाप्य": 4393,
      "भीष": 4394,
      "यतः": 4395,
      "देवी": 4396,
      "द्धं": 4397,
      "manyu": 4398,
      "whel": 4399,
      "described": 4400,
      "\"(": 4401,
      "equ": 4402,
      "edi": 4403,
      "limb": 4404,
      "रुधि": 4405,
      "माने": 4406,
      "mbers": 4407,
      "example": 4408,
      "tor": 4409,
      "ues": 4410,
      "स्तान्": 4411,
      "निशित": 4412,
      "मानः": 4413,
      "प्रार्थ": 4414,
      "hood": 4415,
      "anything": 4416,
      "सृष्ट": 4417,
      "suming": 4418,
      "leaving": 4419,
      "rakshasa": 4420,
      "यच्च": 4421,
      "वादि": 4422,
      "subdu": 4423,
      "स्त्वया": 4424,
      "वत्स": 4425,
      "वसि": 4426,
      "वाहि": 4427,
      "bracke": 4428,
      "cost": 4429,
      "हुर्": 4430,
      "दस्य": 4431,
      "यन्ते": 4432,
      "shorn": 4433,
      "पाञ्चा": 4434,
      "dush": 4435,
      "phen": 4436,
      "पार्थिव": 4437,
      "invin": 4438,
      "snake": 4439,
      "ब्रह्मा": 4440,
      "ील्ड्": 4441,
      "पुङ्ग": 4442,
      "सुसं": 4443,
      "शुचि": 4444,
      "तपसा": 4445,
      "auster": 4446,
      "kṣ": 4447,
      "शतं": 4448,
      "विपु": 4449,
      "stream": 4450,
      "confer": 4451,
      "महाभाग": 4452,
      "द्वे": 4453,
      "कुर्वन्ति": 4454,
      "tremb": 4455,
      "certainly": 4456,
      "ame": 4457,
      "स्पो": 4458,
      "नाश": 4459,
      "ben": 4460,
      "डी": 4461,
      "ददृ": 4462,
      "नय": 4463,
      "temp": 4464,
      "orious": 4465,
      "pointed": 4466,
      "invincible": 4467,
      "ping": 4468,
      "vri": 4469,
      "चक्षु": 4470,
      "पत्य": 4471,
      "र्वे": 4472,
      "कुण्ड": 4473,
      "णाम": 4474,
      "carried": 4475,
      "पाण्डवा": 4476,
      "broken": 4477,
      "महात्मना": 4478,
      "ns": 4479,
      "नद": 4480,
      "निवर्त": 4481,
      "accep": 4482,
      "किमपि": 4483,
      "रण्य": 4484,
      "ान्ता": 4485,
      "मण्ड": 4486,
      "वध्य": 4487,
      "र्थम्": 4488,
      "prop": 4489,
      "names": 4490,
      "condition": 4491,
      "available": 4492,
      "sand": 4493,
      "कल": 4494,
      "ज्ये": 4495,
      "प्रश्": 4496,
      "त्वयि": 4497,
      "भूमौ": 4498,
      "प्लु": 4499,
      "दानं": 4500,
      "राक्षसे": 4501,
      "प्रियं": 4502,
      "पश्याम": 4503,
      "सात्यकि": 4504,
      "ैवा": 4505,
      "influ": 4506,
      "usha": 4507,
      "exe": 4508,
      "kins": 4509,
      "foe": 4510,
      "रूपा": 4511,
      "necess": 4512,
      "acquiring": 4513,
      "fle": 4514,
      "gen": 4515,
      "तस्मै": 4516,
      "र्मि": 4517,
      "owing": 4518,
      "mantras": 4519,
      "sovere": 4520,
      "हिं": 4521,
      "स्थितम्": 4522,
      "धर्मो": 4523,
      "sovereign": 4524,
      "iva": 4525,
      "कण्": 4526,
      "छि": 4527,
      "दन": 4528,
      "वरं": 4529,
      "शङ्ख": 4530,
      "sever": 4531,
      "माध": 4532,
      "मिच्छामि": 4533,
      "नुदतु": 4534,
      "नूत": 4535,
      "ददौ": 4536,
      "straight": 4537,
      "cries": 4538,
      "truthful": 4539,
      "एक्": 4540,
      "भया": 4541,
      "beheld": 4542,
      "मेथ": 4543,
      "जाता": 4544,
      "धारि": 4545,
      "disciples": 4546,
      "brave": 4547,
      "grati": 4548,
      "soma": 4549,
      "द्रौणि": 4550,
      "points": 4551,
      "madhu": 4552,
      "णेन": 4553,
      "नाव": 4554,
      "मेष": 4555,
      "सार": 4556,
      "conch": 4557,
      "actions": 4558,
      "कुले": 4559,
      "भूता": 4560,
      "स्थाने": 4561,
      "धाय": 4562,
      "menu": 4563,
      "speci": 4564,
      "overwhel": 4565,
      "assembly": 4566,
      "sword": 4567,
      "ines": 4568,
      "ire": 4569,
      "rated": 4570,
      "जघ": 4571,
      "तयो": 4572,
      "sam": 4573,
      "ष्यसि": 4574,
      "mass": 4575,
      "मन्त": 4576,
      "विकल्": 4577,
      "mode": 4578,
      "रोऽ": 4579,
      "चारि": 4580,
      "घोर": 4581,
      "परंतप": 4582,
      "सुखं": 4583,
      "welcome": 4584,
      "controlled": 4585,
      "servants": 4586,
      "ङ्का": 4587,
      "यिष्यति": 4588,
      "attach": 4589,
      "अथा": 4590,
      "मता": 4591,
      "ितां": 4592,
      "मेकं": 4593,
      "रिये": 4594,
      "प्तं": 4595,
      "मूर्ध": 4596,
      "मेथड्": 4597,
      "kā": 4598,
      "twent": 4599,
      "लम्ब": 4600,
      "edit": 4601,
      "story": 4602,
      "start": 4603,
      "ण्डि": 4604,
      "stead": 4605,
      "केवलं": 4606,
      "स्पर्": 4607,
      "post": 4608,
      "भृशं": 4609,
      "नराधिप": 4610,
      "hurled": 4611,
      "ल्यं": 4612,
      "fact": 4613,
      "ान्तः": 4614,
      "शोण": 4615,
      "palace": 4616,
      "twenty": 4617,
      "thed": 4618,
      "iny": 4619,
      "ention": 4620,
      "मासाद्य": 4621,
      "front": 4622,
      "ज्ञात्वा": 4623,
      "लोकान्": 4624,
      "happy": 4625,
      "धर्मेण": 4626,
      "music": 4627,
      "abandon": 4628,
      "fit": 4629,
      "अस्म": 4630,
      "समान": 4631,
      "र्च": 4632,
      "files": 4633,
      "भाः": 4634,
      "द्यो": 4635,
      "तीव": 4636,
      "पेक्ष": 4637,
      "begot": 4638,
      "drag": 4639,
      "information": 4640,
      "hya": 4641,
      "ani": 4642,
      "माता": 4643,
      "कारि": 4644,
      "odara": 4645,
      "वेरिये": 4646,
      "princes": 4647,
      "java": 4648,
      "शक्यते": 4649,
      "ुमर्हसि": 4650,
      "स्त्राणि": 4651,
      "धाव": 4652,
      "ग्न": 4653,
      "joined": 4654,
      "ददाति": 4655,
      "पुरुषा": 4656,
      "oper": 4657,
      "pow": 4658,
      "धौ": 4659,
      "र्न": 4660,
      "shown": 4661,
      "eyed": 4662,
      "visible": 4663,
      "जेक्ट्": 4664,
      "attached": 4665,
      "तश्च": 4666,
      "यता": 4667,
      "रात्": 4668,
      "भवन्": 4669,
      "कुम्भ": 4670,
      "व्यक्त": 4671,
      "सूच": 4672,
      "wait": 4673,
      "drop": 4674,
      "वेरियेबल्": 4675,
      "fish": 4676,
      "तवा": 4677,
      "दपि": 4678,
      "ories": 4679,
      "organ": 4680,
      "सुहृ": 4681,
      "ज्ञानं": 4682,
      "cape": 4683,
      "वृत्तं": 4684,
      "places": 4685,
      "क्रीड": 4686,
      "conflict": 4687,
      "sometimes": 4688,
      "शील": 4689,
      "austerities": 4690,
      "bas": 4691,
      "cup": 4692,
      "पवित्र": 4693,
      "roars": 4694,
      "कुन्ती": 4695,
      "च्छति": 4696,
      "ager": 4697,
      "falling": 4698,
      "सनात": 4699,
      "breathing": 4700,
      "ets": 4701,
      "ययौ": 4702,
      "moving": 4703,
      "vast": 4704,
      "ान्ते": 4705,
      "मनुष्य": 4706,
      "garlands": 4707,
      "limbs": 4708,
      "तस्मि": 4709,
      "दित्य": 4710,
      "ोर": 4711,
      "makes": 4712,
      "damsel": 4713,
      "धेन": 4714,
      "वर्तत": 4715,
      "dhrish": 4716,
      "उपयोक्त": 4717,
      "setting": 4718,
      "matter": 4719,
      "्रुत्वा": 4720,
      "ded": 4721,
      "sounds": 4722,
      "धः": 4723,
      "वाजि": 4724,
      "odle": 4725,
      "संवृ": 4726,
      "greater": 4727,
      "breast": 4728,
      "terminal": 4729,
      "krita": 4730,
      "occasion": 4731,
      "हनू": 4732,
      "anta": 4733,
      "स्ततो": 4734,
      "shud": 4735,
      "ctr": 4736,
      "abhi": 4737,
      "kara": 4738,
      "निमित्तं": 4739,
      "flo": 4740,
      "reve": 4741,
      "deli": 4742,
      "mahadeva": 4743,
      "दामि": 4744,
      "redu": 4745,
      "plan": 4746,
      "virata": 4747,
      "भुज": 4748,
      "list": 4749,
      "nect": 4750,
      "श्छ": 4751,
      "मुद": 4752,
      "भूय": 4753,
      "पितु": 4754,
      "वचनम": 4755,
      "........": 4756,
      "sense": 4757,
      "belonging": 4758,
      "manifest": 4759,
      "अहम्": 4760,
      "धन्व": 4761,
      "sec": 4762,
      "क्ले": 4763,
      "creator": 4764,
      "tenance": 4765,
      "distress": 4766,
      "observing": 4767,
      "double": 4768,
      "conquer": 4769,
      "der": 4770,
      "mā": 4771,
      "नरः": 4772,
      "hill": 4773,
      "पाण्डवाः": 4774,
      "elements": 4775,
      "भाषत": 4776,
      "ेय": 4777,
      "त्था": 4778,
      "केचि": 4779,
      "hadra": 4780,
      "ानाम्": 4781,
      "shape": 4782,
      "लेख": 4783,
      "agit": 4784,
      "gandiva": 4785,
      "liberation": 4786,
      "false": 4787,
      "मुहूर्त": 4788,
      "relatives": 4789,
      "xt": 4790,
      "आसीत्": 4791,
      "पदे": 4792,
      "ितानि": 4793,
      "raised": 4794,
      "न्दु": 4795,
      "fig": 4796,
      "संत": 4797,
      "resid": 4798,
      "लोकं": 4799,
      "bran": 4800,
      "ज्यो": 4801,
      "entering": 4802,
      "penet": 4803,
      "obtains": 4804,
      "calam": 4805,
      "vara": 4806,
      "एतादृ": 4807,
      "वश": 4808,
      "ब्रवीद्": 4809,
      "younger": 4810,
      "क्लास्": 4811,
      "ield": 4812,
      "rings": 4813,
      "उदा": 4814,
      "धु": 4815,
      "बान्ध": 4816,
      "acha": 4817,
      "creature": 4818,
      "करोतु": 4819,
      "wishes": 4820,
      "पाण्डवानां": 4821,
      "study": 4822,
      "cruel": 4823,
      "पत्र": 4824,
      "inks": 4825,
      "rew": 4826,
      "महात्मान": 4827,
      "शाश्व": 4828,
      "hope": 4829,
      "ष्यते": 4830,
      "कोप": 4831,
      "मोक्ष": 4832,
      "मूढ": 4833,
      "च्यु": 4834,
      "फाल्": 4835,
      "ences": 4836,
      "प्रताप": 4837,
      "beho": 4838,
      "ragh": 4839,
      "priest": 4840,
      "कम्प": 4841,
      "वित्": 4842,
      "txt": 4843,
      "समं": 4844,
      "ages": 4845,
      "destroying": 4846,
      "shakuni": 4847,
      "multi": 4848,
      "fright": 4849,
      "default": 4850,
      "लोच": 4851,
      "yore": 4852,
      "curse": 4853,
      "twel": 4854,
      "अने": 4855,
      "रैः": 4856,
      "becoming": 4857,
      "भूतं": 4858,
      "partic": 4859,
      "लोकेषु": 4860,
      "पुरस्": 4861,
      "numerable": 4862,
      "प्रत्युवाच": 4863,
      "द्विती": 4864,
      "punish": 4865,
      "ksha": 4866,
      "source": 4867,
      "पान": 4868,
      "भर्ता": 4869,
      "inha": 4870,
      "प्रस": 4871,
      "त्सु": 4872,
      "स्ये": 4873,
      "कास": 4874,
      "abst": 4875,
      "exal": 4876,
      "शोच": 4877,
      "पाण्डवः": 4878,
      "युष्मान्": 4879,
      "इन्द्र": 4880,
      "एषा": 4881,
      "anka": 4882,
      "seat": 4883,
      "tive": 4884,
      "uts": 4885,
      "rudra": 4886,
      "प्रिया": 4887,
      "varuna": 4888,
      "hyphen": 4889,
      "janaka": 4890,
      "repeatedly": 4891,
      "पक्षि": 4892,
      "anti": 4893,
      "राजं": 4894,
      "स्थिति": 4895,
      "क्रुद्धः": 4896,
      "defeat": 4897,
      "भद्रं": 4898,
      "overwhelmed": 4899,
      "हते": 4900,
      "innumerable": 4901,
      "महान": 4902,
      "quot": 4903,
      "lake": 4904,
      "धर्मः": 4905,
      "student": 4906,
      "receive": 4907,
      "एवमुक्त्वा": 4908,
      "beginning": 4909,
      "शार्दूल": 4910,
      "ained": 4911,
      "bot": 4912,
      "विद्व": 4913,
      "निश": 4914,
      "access": 4915,
      "upada": 4916,
      "perfect": 4917,
      "permission": 4918,
      "व्यू": 4919,
      "ण्ड्": 4920,
      "sive": 4921,
      "त्राणि": 4922,
      "assu": 4923,
      "नाथ": 4924,
      "fixed": 4925,
      "पुरी": 4926,
      "महारथाः": 4927,
      "तीर्थ": 4928,
      "चिन्वन्तु": 4929,
      "zens": 4930,
      "esta": 4931,
      "lection": 4932,
      "र्ति": 4933,
      "लोकानां": 4934,
      "individ": 4935,
      "banks": 4936,
      "स्पोकन्": 4937,
      "clear": 4938,
      "jar": 4939,
      "lum": 4940,
      "अन्व": 4941,
      "यत्त": 4942,
      "पुट": 4943,
      "नूनं": 4944,
      "अक्ष": 4945,
      "requi": 4946,
      "कामा": 4947,
      "महेन्द्र": 4948,
      "ural": 4949,
      "gets": 4950,
      "समाह": 4951,
      "followers": 4952,
      "speaking": 4953,
      "kinsmen": 4954,
      "jour": 4955,
      "vol": 4956,
      "गः": 4957,
      "डौ": 4958,
      "मणि": 4959,
      "याश्च": 4960,
      "पार": 4961,
      "तुर्": 4962,
      "महाय": 4963,
      "न्ये": 4964,
      "कोद": 4965,
      "प्यु": 4966,
      "मानुष": 4967,
      "gni": 4968,
      "uta": 4969,
      "मस्य": 4970,
      "रात्र": 4971,
      "drupada": 4972,
      "नमस्": 4973,
      "यशस्वि": 4974,
      "cking": 4975,
      "cles": 4976,
      "हय": 4977,
      "स्फ": 4978,
      "creation": 4979,
      "dras": 4980,
      "भूतानि": 4981,
      "honoured": 4982,
      "जनार्द": 4983,
      "morn": 4984,
      "कण्ड": 4985,
      "कोऽ": 4986,
      "वस्य": 4987,
      "ितैः": 4988,
      "विम": 4989,
      "mbha": 4990,
      "orders": 4991,
      "antly": 4992,
      "समासाद्य": 4993,
      "bharad": 4994,
      "mitra": 4995,
      "rushing": 4996,
      "चतुर्": 4997,
      "existence": 4998,
      "exalted": 4999,
      "वरु": 5000,
      "issu": 5001,
      "कामं": 5002,
      "uses": 5003,
      "vaish": 5004,
      "process": 5005,
      "पितरं": 5006,
      "ैरपि": 5007,
      "ministers": 5008,
      "benef": 5009,
      "नान्य": 5010,
      "लस्य": 5011,
      "outs": 5012,
      "sell": 5013,
      "forward": 5014,
      "counting": 5015,
      "prep": 5016,
      "प्राप्तं": 5017,
      "morality": 5018,
      "interest": 5019,
      "vanquished": 5020,
      "bene": 5021,
      "swi": 5022,
      "vya": 5023,
      "करं": 5024,
      "मतिः": 5025,
      "ेत्": 5026,
      "thas": 5027,
      "ital": 5028,
      "स्टे": 5029,
      "knows": 5030,
      "leaves": 5031,
      "assembled": 5032,
      "roots": 5033,
      "attributes": 5034,
      "()": 5035,
      "sei": 5036,
      "मानस्य": 5037,
      "शृङ्ग": 5038,
      "राज्ञा": 5039,
      "वेगेन": 5040,
      "kaikey": 5041,
      "bright": 5042,
      "rä": 5043,
      "शरा": 5044,
      "station": 5045,
      "experi": 5046,
      "व्यो": 5047,
      "uda": 5048,
      "astya": 5049,
      "पश्यति": 5050,
      "तदर्थं": 5051,
      "तिष्ठति": 5052,
      "cam": 5053,
      "स्वयम्": 5054,
      "clad": 5055,
      "answ": 5056,
      "virtues": 5057,
      "सम्यक्": 5058,
      "addressing": 5059,
      "behind": 5060,
      "morning": 5061,
      "तानां": 5062,
      "inion": 5063,
      "स्यते": 5064,
      "iron": 5065,
      "fill": 5066,
      "कथां": 5067,
      "phy": 5068,
      "तपो": 5069,
      "पुनर": 5070,
      "establ": 5071,
      "mult": 5072,
      "nala": 5073,
      "sind": 5074,
      "wings": 5075,
      "yield": 5076,
      "करा": 5077,
      "attered": 5078,
      "सुवर्ण": 5079,
      "स्वं": 5080,
      "धर्मज्ञ": 5081,
      "effect": 5082,
      "अधः": 5083,
      "commanded": 5084,
      "drawn": 5085,
      "इत्युक्त": 5086,
      "result": 5087,
      "liness": 5088,
      "ऋषि": 5089,
      "प्रज": 5090,
      "माम": 5091,
      "health": 5092,
      "usal": 5093,
      "धिपः": 5094,
      "pping": 5095,
      "variable": 5096,
      "चक्रे": 5097,
      "टङ्कयित्वा": 5098,
      "assailed": 5099,
      "sr": 5100,
      "sme": 5101,
      "लू": 5102,
      "सति": 5103,
      "हम": 5104,
      "्रो": 5105,
      "alog": 5106,
      "स्तो": 5107,
      "पापं": 5108,
      "डौन्": 5109,
      ".\"\"": 5110,
      "ip": 5111,
      "ually": 5112,
      "वर्ज": 5113,
      "ह्या": 5114,
      "विश्र": 5115,
      "वाचा": 5116,
      "rose": 5117,
      "पुरुषो": 5118,
      "समीप": 5119,
      "कृत्स्": 5120,
      "anxiety": 5121,
      "corn": 5122,
      "ost": 5123,
      "uka": 5124,
      "अर्थ": 5125,
      "अग्नि": 5126,
      "सान्त": 5127,
      "remon": 5128,
      "मुच्यते": 5129,
      "vaņa": 5130,
      "क्षेत्र": 5131,
      "नन्दन": 5132,
      "gate": 5133,
      "कल्या": 5134,
      "thor": 5135,
      "्वि": 5136,
      "नापि": 5137,
      "निरा": 5138,
      "मिन": 5139,
      "पुनर्": 5140,
      "पुरुषर्षभ": 5141,
      "ध्वज": 5142,
      "sharpen": 5143,
      "mari": 5144,
      "पक्ष": 5145,
      "beloved": 5146,
      "विध्य": 5147,
      "lly": 5148,
      "निवेश": 5149,
      "्येव": 5150,
      "घोष": 5151,
      "दत्त्वा": 5152,
      "displayed": 5153,
      "मत्स्य": 5154,
      "panchala": 5155,
      "jewel": 5156,
      "abhimanyu": 5157,
      "Ad": 5158,
      "date": 5159,
      "really": 5160,
      "क्ष्": 5161,
      "lib": 5162,
      "roll": 5163,
      "मेध": 5164,
      "गृहे": 5165,
      "learnt": 5166,
      "वसिष्ठ": 5167,
      "सुतः": 5168,
      "रिष": 5169,
      "poison": 5170,
      "क्रियते": 5171,
      "bad": 5172,
      "ease": 5173,
      "द्या": 5174,
      "real": 5175,
      "andha": 5176,
      "rable": 5177,
      "library": 5178,
      "नुत्वा": 5179,
      "वृकोद": 5180,
      "दीय": 5181,
      "तवन्तः": 5182,
      "देशस्य": 5183,
      "गन्धर्वा": 5184,
      "practices": 5185,
      "janard": 5186,
      ".”\"": 5187,
      "पार्श्वे": 5188,
      "function": 5189,
      "dasaratha": 5190,
      "मन्द": 5191,
      "shr": 5192,
      "hist": 5193,
      "united": 5194,
      "संयोज": 5195,
      "options": 5196,
      "स्यामः": 5197,
      "सीद": 5198,
      "leading": 5199,
      "क्षिप्रं": 5200,
      "gin": 5201,
      "आग": 5202,
      "repair": 5203,
      "वापि": 5204,
      "wash": 5205,
      "execut": 5206,
      "भः": 5207,
      "सलि": 5208,
      "ह्र": 5209,
      "ints": 5210,
      "वाद्य": 5211,
      "immedi": 5212,
      "ब्राह्मणा": 5213,
      "कौन्तेय": 5214,
      "कृष्णा": 5215,
      "suddenly": 5216,
      "wearing": 5217,
      "त्री": 5218,
      "महात्मा": 5219,
      "ables": 5220,
      "vill": 5221,
      "नेव": 5222,
      "grass": 5223,
      "मूर्": 5224,
      "blue": 5225,
      "alive": 5226,
      "सैन्यं": 5227,
      "uttering": 5228,
      "far": 5229,
      "ior": 5230,
      "tas": 5231,
      "सन्त": 5232,
      "isted": 5233,
      "यावत्": 5234,
      "note": 5235,
      "indic": 5236,
      "ङ्क्": 5237,
      "स्वच्छ": 5238,
      "haspati": 5239,
      "शुभे": 5240,
      "diverse": 5241,
      "इतीमानि": 5242,
      "regarded": 5243,
      "raksasas": 5244,
      "प्रतापवान्": 5245,
      "kal": 5246,
      "गङ्गा": 5247,
      "यामा": 5248,
      "मेऽ": 5249,
      "कुत्": 5250,
      "न्यां": 5251,
      "गाण्ड": 5252,
      "पूज्य": 5253,
      "immort": 5254,
      "रथो": 5255,
      "म्यहं": 5256,
      "हेतो": 5257,
      "pursu": 5258,
      "khandin": 5259,
      "-\"\"": 5260,
      "गं": 5261,
      "जग्राह": 5262,
      "नैः": 5263,
      "पराज": 5264,
      "न्यं": 5265,
      "butter": 5266,
      "कृतवान्": 5267,
      "हेम": 5268,
      "twelve": 5269,
      "citi": 5270,
      "अति": 5271,
      "चय": 5272,
      "नान": 5273,
      "लघु": 5274,
      "ina": 5275,
      "dust": 5276,
      "बलम्": 5277,
      "कथंचन": 5278,
      "palms": 5279,
      "embra": 5280,
      "dhrisht": 5281,
      "वचनमब्रवीत्": 5282,
      "pay": 5283,
      "प्या": 5284,
      "error": 5285,
      "ador": 5286,
      "vaja": 5287,
      "पाण्डवान्": 5288,
      "ततस्ते": 5289,
      "विद्यमानं": 5290,
      "record": 5291,
      "fortune": 5292,
      "gratified": 5293,
      "history": 5294,
      "kash": 5295,
      "विषा": 5296,
      "साक्षा": 5297,
      "कुर": 5298,
      "भ्रात": 5299,
      "maintain": 5300,
      "combat": 5301,
      "dhas": 5302,
      "नाति": 5303,
      "त्रै": 5304,
      "महोद": 5305,
      "kept": 5306,
      "oney": 5307,
      "soci": 5308,
      "vaide": 5309,
      "स्थिताः": 5310,
      "important": 5311,
      "pieces": 5312,
      "स्प": 5313,
      "नाहं": 5314,
      "meas": 5315,
      "तार": 5316,
      "rākṣ": 5317,
      "cloud": 5318,
      "dart": 5319,
      "ladies": 5320,
      "approaching": 5321,
      "वासिनः": 5322,
      "umb": 5323,
      "अर्था": 5324,
      "ऋष": 5325,
      "नान्": 5326,
      "हनि": 5327,
      "stup": 5328,
      "स्यन्ति": 5329,
      "otherwise": 5330,
      "भोजन": 5331,
      "राक्षसा": 5332,
      "graceful": 5333,
      "ब्रुवन्": 5334,
      "excited": 5335,
      "raghu": 5336,
      "ious": 5337,
      "tong": 5338,
      "तन्त्र": 5339,
      "्यो": 5340,
      "्वे": 5341,
      "thern": 5342,
      "रुद": 5343,
      "शुभा": 5344,
      "प्ल": 5345,
      "ative": 5346,
      "installed": 5347,
      "lament": 5348,
      "pitris": 5349,
      "dushasana": 5350,
      "paren": 5351,
      "wild": 5352,
      "stars": 5353,
      "तुल्य": 5354,
      "pect": 5355,
      "armour": 5356,
      "bowman": 5357,
      "presents": 5358,
      "म्बु": 5359,
      "supported": 5360,
      "पद्यते": 5361,
      "succeeds": 5362,
      "talk": 5363,
      "सव्य": 5364,
      "विचार": 5365,
      "वारं": 5366,
      "ching": 5367,
      "स्तर": 5368,
      "demon": 5369,
      "adop": 5370,
      "परित्य": 5371,
      "कुञ्ज": 5372,
      "rising": 5373,
      "iling": 5374,
      "दर्शनम्": 5375,
      "सौमित्र": 5376,
      "पुरुषव्याघ्र": 5377,
      "better": 5378,
      "teacher": 5379,
      "ler": 5380,
      "won": 5381,
      "श्या": 5382,
      "amb": 5383,
      "देशः": 5384,
      "gained": 5385,
      "मुखा": 5386,
      "पराय": 5387,
      "श्रेष्ठं": 5388,
      "smiling": 5389,
      "tirtha": 5390,
      "कच्चि": 5391,
      "bottom": 5392,
      "कान": 5393,
      "haust": 5394,
      "निन्द": 5395,
      "मिथ": 5396,
      "ify": 5397,
      "चास्य": 5398,
      "division": 5399,
      "त्मजः": 5400,
      "ils": 5401,
      "लोकस्य": 5402,
      "प्रोग्रा": 5403,
      "kumbha": 5404,
      "कीर्ति": 5405,
      "पृथक्": 5406,
      "फाल्गु": 5407,
      "particular": 5408,
      "don": 5409,
      "lank": 5410,
      "विद्धि": 5411,
      "fox": 5412,
      "apa": 5413,
      "ङ्क्ष": 5414,
      "mention": 5415,
      "ityas": 5416,
      "द्वै": 5417,
      "possible": 5418,
      "दुःखं": 5419,
      "skill": 5420,
      "अपर": 5421,
      "दिति": 5422,
      "मते": 5423,
      "वु": 5424,
      "काशं": 5425,
      "terror": 5426,
      "exhaust": 5427,
      "thereafter": 5428,
      "ल्ल": 5429,
      "प्रतिष्ठ": 5430,
      "noti": 5431,
      "shaft": 5432,
      "मोच": 5433,
      "ध्यान": 5434,
      "इत्येतत्": 5435,
      "प्रजाः": 5436,
      "approached": 5437,
      "मात्य": 5438,
      "वाय": 5439,
      "त्वे": 5440,
      "vig": 5441,
      "रणानि": 5442,
      "ग्री": 5443,
      "ज्ञाप": 5444,
      "स्तात": 5445,
      "मूल्यं": 5446,
      "faces": 5447,
      "govern": 5448,
      "consciousness": 5449,
      "आर": 5450,
      "measura": 5451,
      "महर्षि": 5452,
      "vrik": 5453,
      "swift": 5454,
      "dhrishtadyumna": 5455,
      "ild": 5456,
      "kap": 5457,
      "ण्व": 5458,
      "asons": 5459,
      "प्रश": 5460,
      "beasts": 5461,
      "भवित": 5462,
      "र्यु": 5463,
      "त्वम": 5464,
      "discus": 5465,
      "स्यास्य": 5466,
      "द्वादश": 5467,
      "choose": 5468,
      "turned": 5469,
      "महायशाः": 5470,
      "दशा": 5471,
      "विभीष": 5472,
      "मास्थाय": 5473,
      "क्रु": 5474,
      "cove": 5475,
      "मधुना": 5476,
      "trun": 5477,
      "pot": 5478,
      "poured": 5479,
      "अर्जु": 5480,
      "चरे": 5481,
      "जित": 5482,
      "प्रच्छ": 5483,
      "ceremon": 5484,
      "ides": 5485,
      "भवत": 5486,
      "किरी": 5487,
      "teeth": 5488,
      "poor": 5489,
      "period": 5490,
      "पाठे": 5491,
      "जन्म": 5492,
      "satisf": 5493,
      "गाण्डीव": 5494,
      ");": 5495,
      "ming": 5496,
      "requ": 5497,
      "माग": 5498,
      "काकुत्": 5499,
      "ends": 5500,
      "hast": 5501,
      "द्वी": 5502,
      "शुद्ध": 5503,
      "eldest": 5504,
      "grieve": 5505,
      "क्यू": 5506,
      "भ्राता": 5507,
      "यूथ": 5508,
      "हैं": 5509,
      "किञ्चन": 5510,
      "individual": 5511,
      "gers": 5512,
      "अना": 5513,
      "inf": 5514,
      "remove": 5515,
      "विह": 5516,
      "सुत": 5517,
      "तीय": 5518,
      "preh": 5519,
      "mercy": 5520,
      "darts": 5521,
      "bathing": 5522,
      "नारद": 5523,
      "offerings": 5524,
      "करें": 5525,
      "influence": 5526,
      "immediately": 5527,
      "seed": 5528,
      "मारिष": 5529,
      "न्नं": 5530,
      "स्तप": 5531,
      "सम्पूर्ण": 5532,
      "मृत्य": 5533,
      "praise": 5534,
      "offspring": 5535,
      "looks": 5536,
      "vided": 5537,
      "कश्चित्": 5538,
      "राघवः": 5539,
      "slow": 5540,
      "विश्वामित्र": 5541,
      "कार्मु": 5542,
      "vrikodara": 5543,
      "ired": 5544,
      "smo": 5545,
      "vam": 5546,
      "नश्च": 5547,
      "नहि": 5548,
      "वर्मा": 5549,
      "र्यं": 5550,
      "herself": 5551,
      "व्यथ": 5552,
      "giver": 5553,
      "immeasura": 5554,
      "version": 5555,
      "kauravas": 5556,
      "avoid": 5557,
      "swords": 5558,
      "tal": 5559,
      "णौ": 5560,
      "तस्थ": 5561,
      "rich": 5562,
      "meat": 5563,
      "योगा": 5564,
      "ears": 5565,
      "वैदे": 5566,
      "लिङ्ग": 5567,
      "कोड्": 5568,
      "देवो": 5569,
      "पुत्रेण": 5570,
      "इदानी": 5571,
      "quotes": 5572,
      "bly": 5573,
      "bur": 5574,
      "घ्रा": 5575,
      "दय": 5576,
      "र्स्": 5577,
      "विल": 5578,
      "unable": 5579,
      "super": 5580,
      "dice": 5581,
      "बलेन": 5582,
      "univers": 5583,
      "chariots": 5584,
      "मर्हसि": 5585,
      "lotuses": 5586,
      "appearance": 5587,
      "net": 5588,
      "wand": 5589,
      "तच्च": 5590,
      "ोत्": 5591,
      "tact": 5592,
      "भूरि": 5593,
      "angu": 5594,
      "वंश": 5595,
      "पुनरा": 5596,
      "vital": 5597,
      "lines": 5598,
      "categ": 5599,
      "agitated": 5600,
      "citizens": 5601,
      "ax": 5602,
      "eg": 5603,
      "सर्ग": 5604,
      "inside": 5605,
      "विश्रु": 5606,
      "मुनिः": 5607,
      "नोप": 5608,
      "प्लव": 5609,
      "चित्त": 5610,
      "बली": 5611,
      "holder": 5612,
      "इत्यस्योपरि": 5613,
      "color": 5614,
      "बुध्य": 5615,
      "पार्श्व": 5616,
      "foolish": 5617,
      "12": 5618,
      "kacha": 5619,
      "षां": 5620,
      "ाय": 5621,
      "स्तां": 5622,
      "shed": 5623,
      "कृतो": 5624,
      "दिशः": 5625,
      "seless": 5626,
      "vasava": 5627,
      "स्यापि": 5628,
      "holding": 5629,
      "follows": 5630,
      "विषय": 5631,
      "ईश्वरस्य": 5632,
      "धनंजयः": 5633,
      "lankā": 5634,
      "ake": 5635,
      "cs": 5636,
      "sli": 5637,
      "मर": 5638,
      "यह": 5639,
      "सत्त": 5640,
      "inc": 5641,
      "severed": 5642,
      "सुता": 5643,
      "percei": 5644,
      "boons": 5645,
      "broad": 5646,
      "धनंजय": 5647,
      "brihaspati": 5648,
      "सहस्रा": 5649,
      "reached": 5650,
      "सान्त्व": 5651,
      ".)": 5652,
      "bound": 5653,
      "कमा": 5654,
      "ancient": 5655,
      "ांसि": 5656,
      "saith": 5657,
      "maṇ": 5658,
      "weep": 5659,
      "थाः": 5660,
      "perfor": 5661,
      "desired": 5662,
      "griva": 5663,
      "famous": 5664,
      "गृहीत्वा": 5665,
      "विराट": 5666,
      "janardana": 5667,
      "यान्ति": 5668,
      "हः": 5669,
      "ह्ये": 5670,
      "unity": 5671,
      "few": 5672,
      "दुर्ध": 5673,
      "ग्रे": 5674,
      "counsell": 5675,
      "passing": 5676,
      "friendship": 5677,
      "worshipful": 5678,
      "meaning": 5679,
      "wrong": 5680,
      "bb": 5681,
      "skilled": 5682,
      "अस्मि": 5683,
      "तदु": 5684,
      "rele": 5685,
      "रुद्र": 5686,
      "सम्पन्": 5687,
      "longer": 5688,
      "slew": 5689,
      "several": 5690,
      "din": 5691,
      "itable": 5692,
      "मिह": 5693,
      "apart": 5694,
      "greatest": 5695,
      "immobile": 5696,
      "स्याः": 5697,
      "कर्णो": 5698,
      "statement": 5699,
      "conquered": 5700,
      "परस्परम्": 5701,
      "srin": 5702,
      "ht": 5703,
      "sof": 5704,
      "vad": 5705,
      "गण्ड": 5706,
      "टु": 5707,
      "पर्ण": 5708,
      "र्थि": 5709,
      "गामि": 5710,
      "चिह्": 5711,
      "rise": 5712,
      "दृश्यन्ते": 5713,
      "distance": 5714,
      "portion": 5715,
      "girl": 5716,
      "राक्षसेन्द्र": 5717,
      "आन": 5718,
      "मद्र": 5719,
      "विभो": 5720,
      "विभाग": 5721,
      "rad": 5722,
      "स्तन": 5723,
      "till": 5724,
      "याज": 5725,
      "कालो": 5726,
      "रणी": 5727,
      "भीमं": 5728,
      "दृष्टुं": 5729,
      "कर्णं": 5730,
      "घात": 5731,
      "distressed": 5732,
      "burnt": 5733,
      "दमब्रवीत्": 5734,
      "प्रथम": 5735,
      "third": 5736,
      "किञ्चित्": 5737,
      "purified": 5738,
      "hour": 5739,
      "अपरं": 5740,
      "करः": 5741,
      "कवच": 5742,
      "ौज": 5743,
      "thes": 5744,
      "manes": 5745,
      "ष्टो": 5746,
      "इत्यनेन": 5747,
      "नीय": 5748,
      "dialog": 5749,
      "यितुम्": 5750,
      "दत्तं": 5751,
      "rākşasa": 5752,
      "शीघ्रं": 5753,
      "ज्येष्ठ": 5754,
      "necessary": 5755,
      "एक्सि": 5756,
      "reveren": 5757,
      "अप्": 5758,
      "मथा": 5759,
      "रङ्ग": 5760,
      "सर्ज": 5761,
      "सखा": 5762,
      "shant": 5763,
      "योजन": 5764,
      "resc": 5765,
      "स्थिता": 5766,
      "चिच्छेद": 5767,
      "countenance": 5768,
      "service": 5769,
      "दानीं": 5770,
      "नृत्य": 5771,
      "प्रथमं": 5772,
      "cros": 5773,
      "stationed": 5774,
      "glad": 5775,
      "swit": 5776,
      "इमे": 5777,
      "एता": 5778,
      "शक": 5779,
      "initi": 5780,
      "mejaya": 5781,
      "त्यक्त्वा": 5782,
      "दिवा": 5783,
      "destiny": 5784,
      "कर्तु": 5785,
      "aksha": 5786,
      "clip": 5787,
      "व्रज": 5788,
      "circum": 5789,
      "स्तथैव": 5790,
      "dru": 5791,
      "ush": 5792,
      "vul": 5793,
      "नरेन्द्र": 5794,
      "assuming": 5795,
      "legs": 5796,
      "मात्र": 5797,
      "राजस्य": 5798,
      "देवाः": 5799,
      "vibh": 5800,
      "grou": 5801,
      "presented": 5802,
      "placing": 5803,
      "बृहस्": 5804,
      "ोन्यं": 5805,
      "serpents": 5806,
      "shantanu": 5807,
      "brā": 5808,
      "गतो": 5809,
      "हतः": 5810,
      "demo": 5811,
      "कील": 5812,
      "handsome": 5813,
      "कर्त्त": 5814,
      "पश्यन्ति": 5815,
      "bird": 5816,
      "princess": 5817,
      "करणी": 5818,
      "सर्प": 5819,
      "notice": 5820,
      "वत": 5821,
      "प्रयोग": 5822,
      "क्ल": 5823,
      "saved": 5824,
      "web": 5825,
      "क्रम": 5826,
      "रुप": 5827,
      "uded": 5828,
      "die": 5829,
      "प्यते": 5830,
      "vali": 5831,
      "properly": 5832,
      "message": 5833,
      "शैल": 5834,
      "जगत्": 5835,
      "flaming": 5836,
      "gent": 5837,
      "lap": 5838,
      "inten": 5839,
      "determin": 5840,
      "vedic": 5841,
      "ग्रन्": 5842,
      "thigh": 5843,
      "bowmen": 5844,
      "trust": 5845,
      "बुद्ध्या": 5846,
      "गमत्": 5847,
      "janamejaya": 5848,
      "कुर्यात": 5849,
      "अभ्यास": 5850,
      "ccounting": 5851,
      "sort": 5852,
      "यक्ष": 5853,
      "सत्तमः": 5854,
      "ेयं": 5855,
      "selected": 5856,
      "hap": 5857,
      "contact": 5858,
      "भविता": 5859,
      "भ्यं": 5860,
      "proceeding": 5861,
      "dropped": 5862,
      "प्रसाद": 5863,
      "vrishni": 5864,
      "gard": 5865,
      "मय": 5866,
      "मर्ष": 5867,
      "rejo": 5868,
      "oub": 5869,
      "lier": 5870,
      "मुत्त": 5871,
      "construct": 5872,
      "क्रू": 5873,
      "श्रव": 5874,
      "किल": 5875,
      "व्यम्": 5876,
      "protecting": 5877,
      "टेक्स्": 5878,
      "increase": 5879,
      "similarly": 5880,
      "brāh": 5881,
      "walk": 5882,
      "ंश्च": 5883,
      "पशु": 5884,
      "asha": 5885,
      "राच": 5886,
      "रामेण": 5887,
      "raid": 5888,
      "develo": 5889,
      "पुस्त": 5890,
      "manner": 5891,
      "proud": 5892,
      "सीद्": 5893,
      "shikhandin": 5894,
      "gandhari": 5895,
      "प्रदर्शयति": 5896,
      "kritavar": 5897,
      "उद": 5898,
      "निबोध": 5899,
      "ज्ञास्यामः": 5900,
      "sought": 5901,
      "क्षेप": 5902,
      "चित्रं": 5903,
      "related": 5904,
      "drawing": 5905,
      "ित्त्वा": 5906,
      "सार्धं": 5907,
      "cra": 5908,
      "data": 5909,
      "तले": 5910,
      "धर्ष": 5911,
      "प्रकट": 5912,
      "rid": 5913,
      "sugriva": 5914,
      "प्राणा": 5915,
      "rule": 5916,
      "harsh": 5917,
      "वृतः": 5918,
      "द्विजा": 5919,
      "प्राप्ता": 5920,
      "मन्यते": 5921,
      "वित्त": 5922,
      "linux": 5923,
      "renouncing": 5924,
      "प्रोग्राम्": 5925,
      "jit": 5926,
      "kha": 5927,
      "uman": 5928,
      "चकार": 5929,
      "फि": 5930,
      "शङ्क": 5931,
      "हतं": 5932,
      "ेदं": 5933,
      "ान्न": 5934,
      "परो": 5935,
      "दुर्ग": 5936,
      "लाघ": 5937,
      "afraid": 5938,
      "download": 5939,
      "इतीदम्": 5940,
      "सुखम्": 5941,
      "rulers": 5942,
      "तन्मे": 5943,
      "रत्न": 5944,
      "दिष्ट्या": 5945,
      "jewels": 5946,
      "04": 5947,
      "fing": 5948,
      "anc": 5949,
      "निरी": 5950,
      "fif": 5951,
      "संज्ञ": 5952,
      "भवता": 5953,
      "सर्वतः": 5954,
      "भूत्": 5955,
      "opens": 5956,
      "ब्जेक्ट्": 5957,
      "चेष्ट": 5958,
      "striking": 5959,
      "कैके": 5960,
      "started": 5961,
      "ere": 5962,
      "equi": 5963,
      "fly": 5964,
      "oh": 5965,
      "ured": 5966,
      "इन्": 5967,
      "पङ्क्त": 5968,
      "हतो": 5969,
      "arose": 5970,
      "spor": 5971,
      "opinion": 5972,
      "attention": 5973,
      "seemed": 5974,
      "वर्तन्ते": 5975,
      "serve": 5976,
      "pleasant": 5977,
      "भृतां": 5978,
      "भृशम्": 5979,
      "restra": 5980,
      "exerc": 5981,
      "calamity": 5982,
      "bharadvaja": 5983,
      "एक्सिक्यू": 5984,
      "hot": 5985,
      "इस": 5986,
      "कता": 5987,
      "artic": 5988,
      "def": 5989,
      "संध": 5990,
      "मुञ्च": 5991,
      "कुलं": 5992,
      "ishing": 5993,
      "त्वि": 5994,
      "समृ": 5995,
      "रणम्": 5996,
      "veda": 5997,
      "मुखे": 5998,
      "forests": 5999,
      "महाबाहु": 6000,
      "support": 6001,
      "भीष्मं": 6002,
      "ascended": 6003,
      "universal": 6004,
      "fur": 6005,
      "past": 6006,
      "एतानि": 6007,
      "ैल्": 6008,
      "ोल्": 6009,
      "याम्": 6010,
      "moodle": 6011,
      "प्राणि": 6012,
      "ोऽस्मि": 6013,
      "द्वयं": 6014,
      "गुणा": 6015,
      "ashva": 6016,
      "यिहू": 6017,
      "entertain": 6018,
      "current": 6019,
      "rules": 6020,
      "continued": 6021,
      "गान्धा": 6022,
      "बहून्": 6023,
      "कर्म्म": 6024,
      "eating": 6025,
      "ive": 6026,
      "tar": 6027,
      "तपाः": 6028,
      "ernal": 6029,
      "पुट्": 6030,
      "देवे": 6031,
      "उपयु": 6032,
      "भगवन्": 6033,
      "princi": 6034,
      "मैथि": 6035,
      "जानामि": 6036,
      "promise": 6037,
      "satisfied": 6038,
      "quarters": 6039,
      "fut": 6040,
      "आस": 6041,
      "भवा": 6042,
      "यज": 6043,
      "येषां": 6044,
      "ords": 6045,
      "प्रवे": 6046,
      "क्ष्या": 6047,
      "निवा": 6048,
      "extra": 6049,
      "समुप": 6050,
      "भृश": 6051,
      "attacked": 6052,
      "resplend": 6053,
      "changes": 6054,
      "sister": 6055,
      "remained": 6056,
      "branches": 6057,
      "ugh": 6058,
      "मनी": 6059,
      "insu": 6060,
      "stone": 6061,
      "राधे": 6062,
      "मेतत्": 6063,
      "मेवं": 6064,
      "सामान्य": 6065,
      "female": 6066,
      "laim": 6067,
      "वीरा": 6068,
      "dissol": 6069,
      "angada": 6070,
      "ब्रह्मन्": 6071,
      "directory": 6072,
      "lication": 6073,
      "अग्रि": 6074,
      "ctrl": 6075,
      "switch": 6076,
      "pop": 6077,
      "मरु": 6078,
      "माया": 6079,
      "निष": 6080,
      "संयुक्त": 6081,
      "urged": 6082,
      "loop": 6083,
      "जनमे": 6084,
      "flower": 6085,
      "विष्णु": 6086,
      "wing": 6087,
      "अङ्ग": 6088,
      "कला": 6089,
      "नरो": 6090,
      "फील्ड्": 6091,
      "ैनं": 6092,
      "forgiven": 6093,
      "याद्": 6094,
      "कारं": 6095,
      "स्वय": 6096,
      "न्यु": 6097,
      "वीरः": 6098,
      "मन्यु": 6099,
      "एतद्": 6100,
      "घां": 6101,
      "नन्": 6102,
      "ेः": 6103,
      "महाना": 6104,
      "सुः": 6105,
      "भार्य": 6106,
      "प्राह": 6107,
      "व्यां": 6108,
      "ordained": 6109,
      "illusion": 6110,
      "neck": 6111,
      "subhadra": 6112,
      "करोत्": 6113,
      "पतेः": 6114,
      "bull": 6115,
      "व्यवस्था": 6116,
      "पृथिवीं": 6117,
      "sitting": 6118,
      "thirst": 6119,
      "advanced": 6120,
      "explain": 6121,
      "नूतनं": 6122,
      "future": 6123,
      "gro": 6124,
      "yed": 6125,
      "नुज्ञा": 6126,
      "शाल": 6127,
      "कीर्ष": 6128,
      "lessly": 6129,
      "भूतानां": 6130,
      "protector": 6131,
      "रावण": 6132,
      "सरस्व": 6133,
      "विक्रमः": 6134,
      "मन्त्रि": 6135,
      "shoot": 6136,
      "sharpened": 6137,
      "दुर्धर्ष": 6138,
      "bus": 6139,
      "mend": 6140,
      "गू": 6141,
      "chest": 6142,
      "ided": 6143,
      "साहाय": 6144,
      "कृताः": 6145,
      "वृक्षा": 6146,
      "counsel": 6147,
      "subala": 6148,
      "retched": 6149,
      "build": 6150,
      "श्रीमान्": 6151,
      "क्षत्रिया": 6152,
      "janas": 6153,
      "flamed": 6154,
      "काकुत्स्थ": 6155,
      "bent": 6156,
      "विस्त": 6157,
      "chit": 6158,
      "निषे": 6159,
      "कारा": 6160,
      "ानिव": 6161,
      "vicious": 6162,
      "चाप": 6163,
      "board": 6164,
      "something": 6165,
      "कीर्ण": 6166,
      "furious": 6167,
      "नाम्ना": 6168,
      "धनुः": 6169,
      "spiritu": 6170,
      "विशार": 6171,
      "प्रविश्य": 6172,
      "बहवो": 6173,
      "slowly": 6174,
      "ption": 6175,
      "वस्तु": 6176,
      "ordered": 6177,
      "roaring": 6178,
      "भिरा": 6179,
      "त्ता": 6180,
      "शिरो": 6181,
      "मृषि": 6182,
      "ashvat": 6183,
      "गच्छन्ति": 6184,
      "मांस": 6185,
      "समुपा": 6186,
      "puiss": 6187,
      "written": 6188,
      "सङ्ख्या": 6189,
      "steps": 6190,
      "ज्योति": 6191,
      "wretch": 6192,
      "अं": 6193,
      "बले": 6194,
      "स्यसि": 6195,
      "न्तरम्": 6196,
      "मिमं": 6197,
      "keen": 6198,
      "संह": 6199,
      "myst": 6200,
      "loss": 6201,
      "laugh": 6202,
      "nagas": 6203,
      "viol": 6204,
      "ashes": 6205,
      "aged": 6206,
      "elder": 6207,
      "breath": 6208,
      "भविष्यन्ति": 6209,
      "न्द्रिया": 6210,
      "vinda": 6211,
      "answer": 6212,
      "clipse": 6213,
      "kam": 6214,
      "कति": 6215,
      "रस": 6216,
      "विभूष": 6217,
      "किन्त": 6218,
      "except": 6219,
      "watch": 6220,
      "fication": 6221,
      "helps": 6222,
      "प्राप्नोति": 6223,
      "general": 6224,
      "द्भुत": 6225,
      "cheerful": 6226,
      "believe": 6227,
      "वर्षाणि": 6228,
      "beyond": 6229,
      "fatig": 6230,
      "जघान": 6231,
      "mali": 6232,
      "पता": 6233,
      "र्वि": 6234,
      "प्रकार": 6235,
      "मात्म": 6236,
      "sau": 6237,
      "भाति": 6238,
      "भ्यु": 6239,
      "capital": 6240,
      "blind": 6241,
      "colon": 6242,
      "profit": 6243,
      "shudra": 6244,
      "लानि": 6245,
      "itions": 6246,
      "स्ट्र": 6247,
      "tiger": 6248,
      "भीमो": 6249,
      "password": 6250,
      "skin": 6251,
      "नूतन": 6252,
      "static": 6253,
      "osity": 6254,
      "puissant": 6255,
      "cities": 6256,
      "yapa": 6257,
      "प्रवृत्त": 6258,
      "least": 6259,
      "radha": 6260,
      "ङ्गु": 6261,
      "दिश्य": 6262,
      "वेदा": 6263,
      "शुश्रू": 6264,
      "सम्बद्ध": 6265,
      "kshas": 6266,
      "भोग": 6267,
      "शरै": 6268,
      "tutorials": 6269,
      "विद्यमान": 6270,
      "grandson": 6271,
      "जानाति": 6272,
      "पञ्चाल": 6273,
      "ददृशु": 6274,
      "11": 6275,
      "hous": 6276,
      "icon": 6277,
      "mn": 6278,
      "घृ": 6279,
      "ैक": 6280,
      "्यां": 6281,
      "प्रहृष्ट": 6282,
      "ficial": 6283,
      "साध्व": 6284,
      "compi": 6285,
      "तीति": 6286,
      "शोका": 6287,
      "slaught": 6288,
      "souls": 6289,
      "विद्यु": 6290,
      "emplo": 6291,
      "रिंदम": 6292,
      "\"“": 6293,
      "वक्ष्यामि": 6294,
      "comfor": 6295,
      "exists": 6296,
      "gauta": 6297,
      "शिला": 6298,
      "standards": 6299,
      "द्रोणं": 6300,
      "hanuman": 6301,
      "leader": 6302,
      "लभते": 6303,
      "established": 6304,
      "crushed": 6305,
      "pas": 6306,
      "गणा": 6307,
      "stretch": 6308,
      "सर्वेषु": 6309,
      "मुखं": 6310,
      "व्रत": 6311,
      "visions": 6312,
      "lecting": 6313,
      "piercing": 6314,
      "समीपे": 6315,
      "विशेषतः": 6316,
      "embod": 6317,
      "दैत्य": 6318,
      "carrying": 6319,
      "counsellors": 6320,
      "gress": 6321,
      "दनं": 6322,
      "भज": 6323,
      "रणा": 6324,
      "वैः": 6325,
      "विकल्प": 6326,
      "स्तत्": 6327,
      "mach": 6328,
      "maces": 6329,
      "union": 6330,
      "भार्ग": 6331,
      "ourselves": 6332,
      "दिव्या": 6333,
      "हेतु": 6334,
      "quality": 6335,
      "इत्येतेषां": 6336,
      "covet": 6337,
      "lts": 6338,
      "बन्": 6339,
      "हन्": 6340,
      "ौक": 6341,
      "मातु": 6342,
      "भवतः": 6343,
      "लिङ्क्": 6344,
      "मुक्ता": 6345,
      "शत्रू": 6346,
      "running": 6347,
      "स्कन्ध": 6348,
      "बोक्स्": 6349,
      "slaughtered": 6350,
      "ade": 6351,
      "beha": 6352,
      "सारं": 6353,
      "दिव्यं": 6354,
      "समर्थ": 6355,
      "ोऽसि": 6356,
      "देवः": 6357,
      "agastya": 6358,
      "दुःखा": 6359,
      "brāhmaṇ": 6360,
      "इह": 6361,
      "यस्या": 6362,
      "प्रदा": 6363,
      "स्तेषां": 6364,
      "dece": 6365,
      "verily": 6366,
      "सारथि": 6367,
      "तुमु": 6368,
      "fron": 6369,
      "पूर्णा": 6370,
      "तपस्वि": 6371,
      "extreme": 6372,
      "पादौ": 6373,
      "keeping": 6374,
      "रौद्र": 6375,
      "वयमधुना": 6376,
      "renounce": 6377,
      "immeasurable": 6378,
      "eya": 6379,
      "उक्त": 6380,
      "चुः": 6381,
      "ेह": 6382,
      "मेतद्": 6383,
      "देवि": 6384,
      "pers": 6385,
      "रुक्": 6386,
      "रोप": 6387,
      "noise": 6388,
      "icated": 6389,
      "humb": 6390,
      "terrific": 6391,
      "originated": 6392,
      "ुमर्हति": 6393,
      "questions": 6394,
      "committed": 6395,
      "assignment": 6396,
      "physi": 6397,
      "spiritual": 6398,
      "ashvattha": 6399,
      "इन्स्": 6400,
      "चः": 6401,
      "चत्वा": 6402,
      "धरा": 6403,
      "asy": 6404,
      "नात्र": 6405,
      "मानां": 6406,
      "तीक्ष्ण": 6407,
      "previ": 6408,
      "drinking": 6409,
      "priests": 6410,
      "द्वार": 6411,
      "grandsire": 6412,
      "direction": 6413,
      "bathed": 6414,
      "सर्व्वे": 6415,
      "acquain": 6416,
      "confid": 6417,
      "performan": 6418,
      "एक्सिक्यूट्": 6419,
      "यच्छ": 6420,
      "वर्ग": 6421,
      "offi": 6422,
      "प्रमाण": 6423,
      "प्रक्रिया": 6424,
      "सुतो": 6425,
      "दिन": 6426,
      "किम्": 6427,
      "heavy": 6428,
      "match": 6429,
      "garuda": 6430,
      "syn": 6431,
      "acquis": 6432,
      "पत्नी": 6433,
      "acquainted": 6434,
      "fes": 6435,
      "दित": 6436,
      "मद्य": 6437,
      "लौ": 6438,
      "ators": 6439,
      "पार्ष": 6440,
      "ताड": 6441,
      "hari": 6442,
      "mental": 6443,
      "rendered": 6444,
      "obedi": 6445,
      "हृष्टा": 6446,
      "मनुष्या": 6447,
      "सैनि": 6448,
      "सर्वाः": 6449,
      "daily": 6450,
      "राज्ञः": 6451,
      "कौरव्य": 6452,
      "अग्रे": 6453,
      "wielder": 6454,
      "begotten": 6455,
      "prepared": 6456,
      "rot": 6457,
      "मवाप्": 6458,
      "वल्": 6459,
      "तेना": 6460,
      "lions": 6461,
      "प्राप": 6462,
      "सिद्धि": 6463,
      "श्वरस्य": 6464,
      "fathers": 6465,
      "तदन": 6466,
      "सैन्ध": 6467,
      "values": 6468,
      "टङ्कयतु": 6469,
      "produced": 6470,
      "covering": 6471,
      "libations": 6472,
      "दध": 6473,
      "शक्यं": 6474,
      "हनु": 6475,
      "विण्ड": 6476,
      "tible": 6477,
      "नारी": 6478,
      "hills": 6479,
      "र्वी": 6480,
      "महाप्राज्ञ": 6481,
      "causes": 6482,
      "dhrist": 6483,
      "नृपः": 6484,
      "jayad": 6485,
      "षिणः": 6486,
      "धीमतः": 6487,
      "engage": 6488,
      "bringing": 6489,
      "ministr": 6490,
      "practised": 6491,
      "इत्युक्त्वा": 6492,
      "koha": 6493,
      "dle": 6494,
      "जरा": 6495,
      "दन्त": 6496,
      "लङ्का": 6497,
      "र्क": 6498,
      "bewa": 6499,
      "विप्रा": 6500,
      "riding": 6501,
      "नागा": 6502,
      "मिन्द्र": 6503,
      "मुदा": 6504,
      "र्यथा": 6505,
      "भूयः": 6506,
      "ब्रे": 6507,
      "कर्णः": 6508,
      "possessing": 6509,
      "mats": 6510,
      "पुरात": 6511,
      "attains": 6512,
      "कश्चन": 6513,
      "द्विजो": 6514,
      "thunderbolt": 6515,
      "ubuntu": 6516,
      "resplendent": 6517,
      "send": 6518,
      "पला": 6519,
      "inflamed": 6520,
      "sees": 6521,
      "वाप्य": 6522,
      "परमे": 6523,
      "manu": 6524,
      "compet": 6525,
      "fea": 6526,
      "भवतु": 6527,
      "सम्भ्र": 6528,
      "समाग": 6529,
      "चितं": 6530,
      "जीवित": 6531,
      "obtaining": 6532,
      "पृथिव्यां": 6533,
      "devote": 6534,
      "पितामहः": 6535,
      "sarasvati": 6536,
      "punishment": 6537,
      "flying": 6538,
      "kuts": 6539,
      "चमू": 6540,
      "धन्य": 6541,
      "concent": 6542,
      "महाबला": 6543,
      "रुद्ध": 6544,
      "सिद्धा": 6545,
      "वीरो": 6546,
      "vict": 6547,
      "तीं": 6548,
      "ान्तो": 6549,
      "evening": 6550,
      "द्विष": 6551,
      "किंचित्": 6552,
      "प्राप्तो": 6553,
      "commun": 6554,
      "मन्यसे": 6555,
      "कालेन": 6556,
      "उत्था": 6557,
      "worked": 6558,
      "नन्दनः": 6559,
      "crowned": 6560,
      "houses": 6561,
      "cen": 6562,
      "cows": 6563,
      "पां": 6564,
      "पदं": 6565,
      "बभौ": 6566,
      "प्रभृ": 6567,
      "itute": 6568,
      "विविधा": 6569,
      "heat": 6570,
      "ghat": 6571,
      "lif": 6572,
      "क्षः": 6573,
      "त्यज": 6574,
      "महातपाः": 6575,
      "attend": 6576,
      "स्मर": 6577,
      "एवमेव": 6578,
      "clari": 6579,
      "सौम्य": 6580,
      "countries": 6581,
      "hosts": 6582,
      "kaikeyi": 6583,
      "dhristadyumna": 6584,
      "50": 6585,
      "अत्रा": 6586,
      "डो": 6587,
      "लक्ष्य": 6588,
      "वरम्": 6589,
      "प्रधान": 6590,
      "leg": 6591,
      "मह्यं": 6592,
      "मिल": 6593,
      "fil": 6594,
      "दिशो": 6595,
      "इत्यस्या": 6596,
      "pily": 6597,
      "दर्शि": 6598,
      "shiva": 6599,
      "fields": 6600,
      "कुरुते": 6601,
      "नरव्याघ्र": 6602,
      "राज्ञो": 6603,
      "blame": 6604,
      "टेक्स्ट्": 6605,
      "ancest": 6606,
      "further": 6607,
      "ii": 6608,
      "xing": 6609,
      "केषु": 6610,
      "पप्रच्छ": 6611,
      "ानृ": 6612,
      "विभिन्न": 6613,
      "निवृत्त": 6614,
      "निपात": 6615,
      "मेदि": 6616,
      "सारथ": 6617,
      "मुने": 6618,
      "common": 6619,
      "activ": 6620,
      "देशा": 6621,
      "द्रक्ष्य": 6622,
      "apsaras": 6623,
      "obl": 6624,
      "share": 6625,
      "ितेन्द्रि": 6626,
      "द्राव": 6627,
      "कृपया": 6628,
      "खें": 6629,
      "luck": 6630,
      "maiden": 6631,
      "seized": 6632,
      "clarified": 6633,
      "ave": 6634,
      "शान्ति": 6635,
      "section": 6636,
      "माद्र": 6637,
      "मात्मनः": 6638,
      "राग": 6639,
      "ender": 6640,
      "likewise": 6641,
      "चित्रा": 6642,
      "minds": 6643,
      "कृष्णः": 6644,
      "ference": 6645,
      "वाक्यमब्रवीत्": 6646,
      "गौर": 6647,
      "serpent": 6648,
      "nation": 6649,
      "यस्तु": 6650,
      "सज्ज": 6651,
      "महात्मानं": 6652,
      "श्वरम्": 6653,
      "चिरं": 6654,
      "ग्रहा": 6655,
      "regards": 6656,
      "रक्षा": 6657,
      "कर्णस्य": 6658,
      "siddhas": 6659,
      "क्रोधा": 6660,
      "practising": 6661,
      "भोजनं": 6662,
      "squ": 6663,
      "अर्जुन": 6664,
      "सक्त": 6665,
      "िका": 6666,
      "atab": 6667,
      "स्तत": 6668,
      "tired": 6669,
      "काला": 6670,
      "युयु": 6671,
      "धिकं": 6672,
      "पूजय": 6673,
      "चिकीर्ष": 6674,
      "तत्रैव": 6675,
      "गृहं": 6676,
      "म्यहम्": 6677,
      "subju": 6678,
      "numbers": 6679,
      "ततस्तु": 6680,
      "block": 6681,
      "चिन्त्य": 6682,
      "carefully": 6683,
      "articles": 6684,
      "igh": 6685,
      "कमपि": 6686,
      "पण्ड": 6687,
      "वस्त्र": 6688,
      "shining": 6689,
      "संज": 6690,
      "सार्": 6691,
      "compan": 6692,
      "ciation": 6693,
      "ह्नि": 6694,
      "नील": 6695,
      "angle": 6696,
      "wheels": 6697,
      "pub": 6698,
      "दूष": 6699,
      "achieve": 6700,
      "hunger": 6701,
      "sovereignty": 6702,
      "happily": 6703,
      "performance": 6704,
      "jayadratha": 6705,
      "एको": 6706,
      "बलो": 6707,
      "हस्य": 6708,
      "connect": 6709,
      "aps": 6710,
      "perpetu": 6711,
      "त्वेन": 6712,
      "ान्तर": 6713,
      "everywhere": 6714,
      "तपोध": 6715,
      "शूरा": 6716,
      "क्वचित्": 6717,
      "casting": 6718,
      "saluted": 6719,
      "length": 6720,
      "journe": 6721,
      "ghatot": 6722,
      "baf": 6723,
      "tit": 6724,
      "तत्त": 6725,
      "तयोः": 6726,
      "मङ्ग": 6727,
      "प्रकृति": 6728,
      "chand": 6729,
      "याच": 6730,
      "road": 6731,
      "पुं": 6732,
      "योजय": 6733,
      "appointed": 6734,
      "वृत्य": 6735,
      "तस्याः": 6736,
      "ग्रं": 6737,
      "पार्थो": 6738,
      "भ्रातर": 6739,
      "miser": 6740,
      "भेद": 6741,
      "शरीरस्य": 6742,
      "madri": 6743,
      "सञ्चिकां": 6744,
      "practise": 6745,
      "प्रकटयति": 6746,
      "vrit": 6747,
      "yoked": 6748,
      "यस्मिन्": 6749,
      "ोः": 6750,
      "ौघ": 6751,
      "inner": 6752,
      "renow": 6753,
      "स्ट": 6754,
      "shone": 6755,
      "काश्च": 6756,
      "भवत्य": 6757,
      "express": 6758,
      "भूतेषु": 6759,
      "disci": 6760,
      "तस्यां": 6761,
      "स्माद्": 6762,
      "मित्रा": 6763,
      "kshe": 6764,
      "सूद": 6765,
      "भागे": 6766,
      "patience": 6767,
      "asylum": 6768,
      "++": 6769,
      "knew": 6770,
      "ners": 6771,
      "ऐकान्": 6772,
      "्रे": 6773,
      "मादाय": 6774,
      "chas": 6775,
      "याय": 6776,
      "द्रथ": 6777,
      "नुते": 6778,
      "समन्ता": 6779,
      "दर्शयति": 6780,
      "कर्तुम्": 6781,
      "रक्षो": 6782,
      "टिका": 6783,
      "daityas": 6784,
      "complex": 6785,
      "minister": 6786,
      "increas": 6787,
      "----": 6788,
      "piece": 6789,
      "remembering": 6790,
      "अर्थात्": 6791,
      "ghatotkacha": 6792,
      "dan": 6793,
      "kne": 6794,
      "िनी": 6795,
      "severe": 6796,
      "wid": 6797,
      "shrad": 6798,
      "lie": 6799,
      "safe": 6800,
      "यों": 6801,
      "समय": 6802,
      "मृत": 6803,
      "गृध": 6804,
      "उपयोग": 6805,
      "yudhis": 6806,
      "variables": 6807,
      "अधो": 6808,
      "करने": 6809,
      "commands": 6810,
      "observed": 6811,
      "direct": 6812,
      "विनाश": 6813,
      "तूर्णं": 6814,
      "कर्माणि": 6815,
      "वैदेही": 6816,
      "forgiveness": 6817,
      "gautama": 6818,
      "St": 6819,
      "nine": 6820,
      "phi": 6821,
      "उद्य": 6822,
      "उच्यते": 6823,
      "सानु": 6824,
      "semi": 6825,
      "नार्थं": 6826,
      "conso": 6827,
      "abounding": 6828,
      "स्थितं": 6829,
      "्येत": 6830,
      "गात्र": 6831,
      "स्याद्": 6832,
      "मूल्य": 6833,
      "र्दश": 6834,
      "coursing": 6835,
      "महात्मनाम्": 6836,
      "धर्मार्थ": 6837,
      "परीक्ष": 6838,
      "prompt": 6839,
      "difficul": 6840,
      "injury": 6841,
      "packa": 6842,
      "yudhisthira": 6843,
      "bid": 6844,
      "ज्या": 6845,
      "वयम": 6846,
      "सनं": 6847,
      "माणा": 6848,
      "dele": 6849,
      "utt": 6850,
      "soever": 6851,
      "राज्ये": 6852,
      "whence": 6853,
      "सीतां": 6854,
      "thick": 6855,
      "offering": 6856,
      "content": 6857,
      "mounted": 6858,
      "मन्व": 6859,
      "purity": 6860,
      "सुखा": 6861,
      "करिष्यामि": 6862,
      "browser": 6863,
      "सव्यसा": 6864,
      "big": 6865,
      "non": 6866,
      "sions": 6867,
      "yay": 6868,
      "गैः": 6869,
      "जौ": 6870,
      "नराः": 6871,
      "रब्ध": 6872,
      "bears": 6873,
      "विक": 6874,
      "तिं": 6875,
      "वार्": 6876,
      "rig": 6877,
      "र्त्त": 6878,
      "दिवं": 6879,
      "र्यो": 6880,
      "mild": 6881,
      "yakshas": 6882,
      "चिनोमि": 6883,
      "चित्वा": 6884,
      "युक्तो": 6885,
      "अध्या": 6886,
      "break": 6887,
      "अवश्य": 6888,
      "दुर्योधनो": 6889,
      "finite": 6890,
      "पद्यत": 6891,
      "पराक्रमः": 6892,
      "reduced": 6893,
      "kutstha": 6894,
      "कन": 6895,
      "करम्": 6896,
      "यस्व": 6897,
      "र्ड्": 6898,
      "विर": 6899,
      "विख्या": 6900,
      "saints": 6901,
      "advice": 6902,
      "राजपुत्र": 6903,
      "सर्वत्र": 6904,
      "क्रम्य": 6905,
      "र्ध्व": 6906,
      "medic": 6907,
      "शक्नोमि": 6908,
      "shows": 6909,
      "recite": 6910,
      "पर्यन्तं": 6911,
      "yuga": 6912,
      "कार्याणि": 6913,
      "16": 6914,
      "bala": 6915,
      "danger": 6916,
      "औट्": 6917,
      "नानु": 6918,
      "भै": 6919,
      "aloud": 6920,
      "below": 6921,
      "मुद्": 6922,
      "मानाः": 6923,
      "uding": 6924,
      "सेट्": 6925,
      "बलव": 6926,
      "कौस": 6927,
      "graced": 6928,
      "animal": 6929,
      "strike": 6930,
      "consisting": 6931,
      "ईश्वर": 6932,
      "दद्या": 6933,
      "रचना": 6934,
      "भवद्भिः": 6935,
      "परस्परं": 6936,
      "fleet": 6937,
      "Lin": 6938,
      "guna": 6939,
      "मत": 6940,
      "यदु": 6941,
      "ऽस्मिन्": 6942,
      "िः": 6943,
      "thren": 6944,
      "ination": 6945,
      "मिहा": 6946,
      "परः": 6947,
      "संख्या": 6948,
      "mba": 6949,
      "ग्ने": 6950,
      "shame": 6951,
      "गच्छन्तु": 6952,
      "brethren": 6953,
      "पादप": 6954,
      "रावणः": 6955,
      "cleans": 6956,
      "स्थितौ": 6957,
      "cross": 6958,
      "accepted": 6959,
      "dissolution": 6960,
      "करणं": 6961,
      "प्रविश": 6962,
      "ites": 6963,
      "त्क": 6964,
      "ष्टः": 6965,
      "सर्वमा": 6966,
      "त्वत्": 6967,
      "भ्यश्च": 6968,
      "शिष्या": 6969,
      "बाध": 6970,
      "पतिम्": 6971,
      "guise": 6972,
      "श्रेष्ठो": 6973,
      "नगरं": 6974,
      "final": 6975,
      "वर्णा": 6976,
      "कश्चिद्": 6977,
      "tranqu": 6978,
      "brackets": 6979,
      "situ": 6980,
      "ओब्जेक्ट्": 6981,
      "गवा": 6982,
      "शां": 6983,
      "level": 6984,
      "rice": 6985,
      "concl": 6986,
      "महावीर्य": 6987,
      "महाद्यु": 6988,
      "भागा": 6989,
      "ishtha": 6990,
      "नेत्र": 6991,
      "केट्": 6992,
      "unders": 6993,
      "गृहा": 6994,
      "guests": 6995,
      "श्रेय": 6996,
      "स्तीक्ष्ण": 6997,
      "ग्रहः": 6998,
      "ordinary": 6999,
      "ascending": 7000,
      "courage": 7001,
      "स्पर्श": 7002,
      "निशम्य": 7003,
      "beneficial": 7004,
      "aim": 7005,
      "rup": 7006,
      "ssom": 7007,
      "आश्र": 7008,
      "आसन": 7009,
      "इद": 7010,
      "जलं": 7011,
      "पदी": 7012,
      "रश्": 7013,
      "लभे": 7014,
      "न्तौ": 7015,
      "तेभ्यः": 7016,
      "दात्": 7017,
      "सुयोध": 7018,
      "तुर": 7019,
      "लोम": 7020,
      "viś": 7021,
      "शासन": 7022,
      "स्थिते": 7023,
      "धार्मि": 7024,
      "gras": 7025,
      "types": 7026,
      "दर्शनं": 7027,
      "पतिं": 7028,
      "जिघां": 7029,
      "summit": 7030,
      "तेजो": 7031,
      "श्रोतु": 7032,
      "श्राव": 7033,
      "completely": 7034,
      "लभ्यते": 7035,
      "चक्ष्व": 7036,
      "कण्ठ": 7037,
      "covetous": 7038,
      "eager": 7039,
      "gang": 7040,
      "mouse": 7041,
      "smit": 7042,
      "इयं": 7043,
      "गन्तुं": 7044,
      "वपु": 7045,
      "वनम्": 7046,
      "madras": 7047,
      "निवेद": 7048,
      "unciation": 7049,
      "श्चर्य": 7050,
      "adv": 7051,
      "ayod": 7052,
      "सुतं": 7053,
      "योत्": 7054,
      "सहदेव": 7055,
      "प्रतिज्ञा": 7056,
      "divisions": 7057,
      "मोद": 7058,
      "throne": 7059,
      "युक्तः": 7060,
      "भारद्वा": 7061,
      "क्षत्रिय": 7062,
      "भीष्मः": 7063,
      "installation": 7064,
      "गमिष्यामि": 7065,
      "queen": 7066,
      "atabase": 7067,
      "langu": 7068,
      "armies": 7069,
      "परु": 7070,
      "consequ": 7071,
      "सर्वतो": 7072,
      "स्तिष्ठ": 7073,
      "दर्प": 7074,
      "क्षिप्य": 7075,
      "वचो": 7076,
      "scor": 7077,
      "स्वागतम्": 7078,
      "enjoyment": 7079,
      "निष्कास": 7080,
      "यथो": 7081,
      "ेऽस्मिन्": 7082,
      "काञ्चन": 7083,
      "equally": 7084,
      "basic": 7085,
      "De": 7086,
      "sank": 7087,
      "गन्": 7088,
      "गतिः": 7089,
      "टन्": 7090,
      "working": 7091,
      "दिवि": 7092,
      "fulfilled": 7093,
      "दृशं": 7094,
      "व्यः": 7095,
      "ज्ञाना": 7096,
      "देवानां": 7097,
      "दीप": 7098,
      "brings": 7099,
      "author": 7100,
      "ैर्वि": 7101,
      "mara": 7102,
      "blossom": 7103,
      "दूर": 7104,
      "समीक्ष्य": 7105,
      "afflict": 7106,
      "क्वे": 7107,
      "middle": 7108,
      "adore": 7109,
      "remaining": 7110,
      "स्टेट्": 7111,
      "kashyapa": 7112,
      "competent": 7113,
      "pul": 7114,
      "zes": 7115,
      "जनः": 7116,
      "thered": 7117,
      "aled": 7118,
      "क्टर्": 7119,
      "hither": 7120,
      "area": 7121,
      "motion": 7122,
      "न्यो": 7123,
      "लोभ": 7124,
      "worldly": 7125,
      "says": 7126,
      "यितु": 7127,
      "राष्ट्रा": 7128,
      "टर्मिन": 7129,
      "ध्याय": 7130,
      "fraught": 7131,
      "sita": 7132,
      "क्रोश": 7133,
      "anxious": 7134,
      "attachment": 7135,
      "पुरस्कृत्य": 7136,
      "tongue": 7137,
      "honey": 7138,
      "ked": 7139,
      "kir": 7140,
      "nas": 7141,
      "टू": 7142,
      "नोऽ": 7143,
      "भ्ये": 7144,
      "मभ्य": 7145,
      "aneous": 7146,
      "regain": 7147,
      "atter": 7148,
      "विज्ञाय": 7149,
      "मुद्य": 7150,
      "रोग": 7151,
      "देवता": 7152,
      "ङ्गि": 7153,
      "phal": 7154,
      "goodness": 7155,
      "राक्षसाः": 7156,
      "meru": 7157,
      "गमनं": 7158,
      "महाबलम्": 7159,
      "कूट": 7160,
      "करिष्यति": 7161,
      "constructor": 7162,
      "cation": 7163,
      "dir": 7164,
      "आं": 7165,
      "लय": 7166,
      "insp": 7167,
      "काय": 7168,
      "राजो": 7169,
      "कुतो": 7170,
      "exhal": 7171,
      "रोष": 7172,
      "पाण्डवे": 7173,
      "tingu": 7174,
      "तपर्व": 7175,
      "प्राप्तुं": 7176,
      "calcul": 7177,
      "frequ": 7178,
      "गतिम्": 7179,
      "शिखण्डि": 7180,
      "group": 7181,
      "vritra": 7182,
      ";\"": 7183,
      "taste": 7184,
      "ऐं": 7185,
      "रघु": 7186,
      "शनै": 7187,
      "carwarriors": 7188,
      "wheel": 7189,
      "praj": 7190,
      "दानव": 7191,
      "शरवर्ष": 7192,
      "वदत्": 7193,
      "besides": 7194,
      "displaying": 7195,
      "tried": 7196,
      "स्त्रियः": 7197,
      "बन्धु": 7198,
      "finding": 7199,
      "Add": 7200,
      "जनमेजय": 7201,
      "!\"\"\"": 7202,
      "खङ्ग": 7203,
      "गर्ह": 7204,
      "तवान्": 7205,
      "पत्त": 7206,
      "सद्": 7207,
      "माल्य": 7208,
      "स्तद्": 7209,
      "पार्था": 7210,
      "accost": 7211,
      "समू": 7212,
      "earlier": 7213,
      "चिद्": 7214,
      "मुखः": 7215,
      "ान्यु": 7216,
      "distribut": 7217,
      "rung": 7218,
      "touched": 7219,
      "प्रविवेश": 7220,
      "पुत्राणां": 7221,
      "rangers": 7222,
      "staying": 7223,
      "साम्प्र": 7224,
      "बीभ": 7225,
      "execute": 7226,
      "चान्ये": 7227,
      "जने": 7228,
      "enced": 7229,
      "ascertain": 7230,
      "प्रयत्": 7231,
      "विनी": 7232,
      "नामा": 7233,
      "mantra": 7234,
      "sprung": 7235,
      "भिषे": 7236,
      "भाषा": 7237,
      "size": 7238,
      "र्षे": 7239,
      "रूपि": 7240,
      "ब्रवीमि": 7241,
      "north": 7242,
      "firma": 7243,
      "प्रेर": 7244,
      "fourth": 7245,
      "शरीरं": 7246,
      "महाबाहुः": 7247,
      "touching": 7248,
      "पुण्यं": 7249,
      "CT": 7250,
      "kh": 7251,
      "rout": 7252,
      "गम्": 7253,
      "धो": 7254,
      "सद": 7255,
      "्रि": 7256,
      "aside": 7257,
      "wide": 7258,
      "प्रवर्त": 7259,
      "विवर": 7260,
      "स्वस्ति": 7261,
      "श्चाप्य": 7262,
      "welkin": 7263,
      "फलम्": 7264,
      "natural": 7265,
      "पौरुष": 7266,
      "deserve": 7267,
      "subjug": 7268,
      "jack": 7269,
      "गवां": 7270,
      "ानपि": 7271,
      "वालि": 7272,
      "arer": 7273,
      "न्यः": 7274,
      "पूर्वा": 7275,
      "aries": 7276,
      "divided": 7277,
      "vessel": 7278,
      "prevent": 7279,
      "व्यास": 7280,
      "पितुः": 7281,
      "marri": 7282,
      "विशत्": 7283,
      "बहुधा": 7284,
      "visit": 7285,
      "summon": 7286,
      "brahmachar": 7287,
      "शरीरे": 7288,
      "प्रयच्छ": 7289,
      "वसुधा": 7290,
      "tempt": 7291,
      "books": 7292,
      "powers": 7293,
      "business": 7294,
      "Linux": 7295,
      "firmament": 7296,
      "तल": 7297,
      "मैः": 7298,
      "escape": 7299,
      "प्रज्ञा": 7300,
      "allen": 7301,
      "याद": 7302,
      "कारणं": 7303,
      "users": 7304,
      "मेधा": 7305,
      "संश्र": 7306,
      "concei": 7307,
      "pelled": 7308,
      "लोकाः": 7309,
      "वेण": 7310,
      "renunciation": 7311,
      "karma": 7312,
      "hue": 7313,
      "स्त्वां": 7314,
      "स्रो": 7315,
      "अनुशिक्ष": 7316,
      "husha": 7317,
      "लक्ष्मणः": 7318,
      "husbands": 7319,
      "bera": 7320,
      "containing": 7321,
      "गण्डं": 7322,
      "महाबलाः": 7323,
      "square": 7324,
      "टर्मिनल्": 7325,
      "__": 7326,
      "sir": 7327,
      "win": 7328,
      "तन्न": 7329,
      "मत्र": 7330,
      "challen": 7331,
      "lli": 7332,
      "निर्द": 7333,
      "unt": 7334,
      "पापा": 7335,
      "क्तो": 7336,
      "प्राची": 7337,
      "वीरं": 7338,
      "दृश": 7339,
      "हुता": 7340,
      "केशव": 7341,
      "servant": 7342,
      "निशितैः": 7343,
      "bracket": 7344,
      "मैथिली": 7345,
      "Save": 7346,
      "eclipse": 7347,
      "rasena": 7348,
      "şa": 7349,
      "दग्ध": 7350,
      "नष्ट": 7351,
      "मज्ज": 7352,
      "षट्": 7353,
      "ूनां": 7354,
      "infer": 7355,
      "stances": 7356,
      "रात्रि": 7357,
      "स्मः": 7358,
      "delay": 7359,
      "क्ष्वा": 7360,
      "concer": 7361,
      "योष": 7362,
      "indul": 7363,
      "nahusha": 7364,
      "ोऽहं": 7365,
      "वैर": 7366,
      "त्मजा": 7367,
      "तपः": 7368,
      "क्ष्यति": 7369,
      "honest": 7370,
      "प्राणान्": 7371,
      "तच्छ्रुत्वा": 7372,
      "समन्वितः": 7373,
      "observance": 7374,
      "bho": 7375,
      "mits": 7376,
      "एताव": 7377,
      "नकुल": 7378,
      "rell": 7379,
      "rela": 7380,
      "espe": 7381,
      "विशु": 7382,
      "मातृ": 7383,
      "क्षत": 7384,
      "पार्थं": 7385,
      "filling": 7386,
      "felt": 7387,
      "राजर्षि": 7388,
      "exile": 7389,
      "lightning": 7390,
      "सेनां": 7391,
      "शूद्र": 7392,
      "cutting": 7393,
      "clothes": 7394,
      "castes": 7395,
      "ception": 7396,
      "सदृश": 7397,
      "thighs": 7398,
      "acquisition": 7399,
      "एं": 7400,
      "घटो": 7401,
      "डै": 7402,
      "मल": 7403,
      "यन्त्र": 7404,
      "सते": 7405,
      "del": 7406,
      "क्षये": 7407,
      "ghters": 7408,
      "संन": 7409,
      "ष्टुं": 7410,
      "भवः": 7411,
      "abha": 7412,
      "thereof": 7413,
      "प्राञ्जलि": 7414,
      "ष्ठं": 7415,
      "दानी": 7416,
      "त्रिषु": 7417,
      "कारणात्": 7418,
      "properties": 7419,
      "easily": 7420,
      "शिरसा": 7421,
      "समेत्य": 7422,
      "declared": 7423,
      "mentioned": 7424,
      "Mo": 7425,
      "gon": 7426,
      "ila": 7427,
      "पल": 7428,
      "यन्ती": 7429,
      "िनः": 7430,
      "enqui": 7431,
      "selection": 7432,
      "admin": 7433,
      "fet": 7434,
      "भूयो": 7435,
      "जाम्ब": 7436,
      "सहिता": 7437,
      "वृत्र": 7438,
      "गाढ": 7439,
      "दृष्टं": 7440,
      "पुरुषः": 7441,
      "daughters": 7442,
      "सहस्रं": 7443,
      "students": 7444,
      "kubera": 7445,
      "wrathful": 7446,
      "द्रौपदी": 7447,
      "methods": 7448,
      "meeting": 7449,
      "morrow": 7450,
      "twang": 7451,
      "folder": 7452,
      "भ्रातृभिः": 7453,
      "raksasa": 7454,
      "opport": 7455,
      "umbrell": 7456,
      "infant": 7457,
      "kritavarman": 7458,
      "oblations": 7459,
      "journey": 7460,
      "emit": 7461,
      "pment": 7462,
      "णैः": 7463,
      "island": 7464,
      "maha": 7465,
      "्याश्च": 7466,
      "ote": 7467,
      "ताश्च": 7468,
      "laksh": 7469,
      "तीनां": 7470,
      "yaj": 7471,
      "ान्तरे": 7472,
      "गुणं": 7473,
      "युधिष्ठिरम्": 7474,
      "push": 7475,
      "womb": 7476,
      "क्षुद्र": 7477,
      "भरतश्रेष्ठ": 7478,
      "indian": 7479,
      "countrymen": 7480,
      "वर्च": 7481,
      "kan": 7482,
      "इदम्": 7483,
      "जयः": 7484,
      "शरणं": 7485,
      "inhal": 7486,
      "andeya": 7487,
      "विवृ": 7488,
      "मात्": 7489,
      "sore": 7490,
      "देहि": 7491,
      "resis": 7492,
      "क्रतु": 7493,
      "स्थितो": 7494,
      "र्षभाः": 7495,
      "ोऽभवत्": 7496,
      "कृतवर्मा": 7497,
      "intent": 7498,
      "जेत्": 7499,
      "शक्तिं": 7500,
      "successful": 7501,
      "madhava": 7502,
      "स्मृतः": 7503,
      "intel": 7504,
      "application": 7505,
      "achieved": 7506,
      "inhabit": 7507,
      "lances": 7508,
      "ox": 7509,
      "ron": 7510,
      "अत्य": 7511,
      "एवा": 7512,
      "ख्यं": 7513,
      "गमाः": 7514,
      "वेष": 7515,
      "हन्त": 7516,
      "हिते": 7517,
      "removed": 7518,
      "istic": 7519,
      "प्रहा": 7520,
      "माध्य": 7521,
      "महीं": 7522,
      "सात्व": 7523,
      "feats": 7524,
      "स्वप्": 7525,
      "दिने": 7526,
      "तथापि": 7527,
      "grat": 7528,
      "पश्यत": 7529,
      "श्नुते": 7530,
      "परां": 7531,
      "happened": 7532,
      "फलितं": 7533,
      "ferences": 7534,
      "scattered": 7535,
      "सहाय": 7536,
      "मिच्छसि": 7537,
      "सर्वभूतानां": 7538,
      "copy": 7539,
      "smoke": 7540,
      "accosted": 7541,
      "intellect": 7542,
      "File": 7543,
      "चं": 7544,
      "पत्ति": 7545,
      "भयम्": 7546,
      "ुर": 7547,
      "्यः": 7548,
      "ening": 7549,
      "काशे": 7550,
      "तावत्": 7551,
      "मेक": 7552,
      "mixed": 7553,
      "ोऽस्ति": 7554,
      "aff": 7555,
      "impetu": 7556,
      "गुप्त": 7557,
      "paul": 7558,
      "acting": 7559,
      "दर्शन": 7560,
      "item": 7561,
      "शूर": 7562,
      "materi": 7563,
      "वर्णं": 7564,
      "निहतं": 7565,
      "recited": 7566,
      "विविधानि": 7567,
      "correct": 7568,
      "profuse": 7569,
      "salutations": 7570,
      "fortunate": 7571,
      "शकुनि": 7572,
      "समाहितः": 7573,
      "vaidehi": 7574,
      "gentle": 7575,
      "semicolon": 7576,
      "घटोत्क": 7577,
      "dream": 7578,
      "fine": 7579,
      "आव": 7580,
      "ण्या": 7581,
      "फला": 7582,
      "प्रणा": 7583,
      "stones": 7584,
      "sport": 7585,
      "स्थो": 7586,
      "दंष्ट": 7587,
      "lesson": 7588,
      "न्द्रा": 7589,
      "overcome": 7590,
      "मनुज": 7591,
      "शूल": 7592,
      "stop": 7593,
      "delightful": 7594,
      "गतिं": 7595,
      "markandeya": 7596,
      "thrown": 7597,
      "drums": 7598,
      "database": 7599,
      "jew": 7600,
      "एतस्मिन्": 7601,
      "हन्या": 7602,
      "माह": 7603,
      "वादं": 7604,
      "irresis": 7605,
      "संघ": 7606,
      "सुप्त": 7607,
      "ेनं": 7608,
      "solic": 7609,
      "कुरुष": 7610,
      "र्थः": 7611,
      "द्यू": 7612,
      "जातु": 7613,
      "creating": 7614,
      "pict": 7615,
      "कथ्यते": 7616,
      "मूलं": 7617,
      "firefox": 7618,
      "नृशं": 7619,
      "retreat": 7620,
      "भगवान": 7621,
      "attaining": 7622,
      "महारथम्": 7623,
      "सागर": 7624,
      "गर्भ": 7625,
      "माधव": 7626,
      "complexion": 7627,
      "rate": 7628,
      "sans": 7629,
      "yad": 7630,
      "इण्": 7631,
      "खलु": 7632,
      "ड्रो": 7633,
      "माद": 7634,
      "shu": 7635,
      "ष्टौ": 7636,
      "समो": 7637,
      "केचन": 7638,
      "discourse": 7639,
      "परिष्": 7640,
      "precious": 7641,
      "श्रुतं": 7642,
      "कुर्वन्": 7643,
      "colours": 7644,
      "फलानि": 7645,
      "thoughts": 7646,
      "aware": 7647,
      "कदाचन": 7648,
      "deeply": 7649,
      "मन्दि": 7650,
      "मार्कण्ड": 7651,
      "propiti": 7652,
      "category": 7653,
      "principal": 7654,
      "विण्डो": 7655,
      "jam": 7656,
      "obey": 7657,
      "तक": 7658,
      "input": 7659,
      "stro": 7660,
      "raise": 7661,
      "weight": 7662,
      "दास": 7663,
      "uru": 7664,
      "comment": 7665,
      "abs": 7666,
      "केक": 7667,
      "द्वौ": 7668,
      "serving": 7669,
      "furi": 7670,
      "श्रुतम्": 7671,
      "waiting": 7672,
      "spirits": 7673,
      "classes": 7674,
      "ranks": 7675,
      "rescue": 7676,
      "',": 7677,
      "Ctr": 7678,
      "fying": 7679,
      "hall": 7680,
      "lted": 7681,
      "tp": 7682,
      "vap": 7683,
      "उन्": 7684,
      "गर्ज": 7685,
      "रतः": 7686,
      "सङ्क": 7687,
      "विवेश": 7688,
      "माप्": 7689,
      "मात्रा": 7690,
      "dex": 7691,
      "vehi": 7692,
      "saint": 7693,
      "निशि": 7694,
      "योनि": 7695,
      "vain": 7696,
      "ैवं": 7697,
      "केचित्": 7698,
      "poli": 7699,
      "parti": 7700,
      "neg": 7701,
      "viron": 7702,
      "बलवान्": 7703,
      "कृत्या": 7704,
      "blow": 7705,
      "passion": 7706,
      "ब्राह्मणो": 7707,
      "रावणं": 7708,
      "summari": 7709,
      "fami": 7710,
      "श्रिया": 7711,
      "delete": 7712,
      "yayati": 7713,
      "स्टेट्मेण्ट्": 7714,
      "marriage": 7715,
      "Ctrl": 7716,
      "30": 7717,
      ":\"\"\"\"\"\"\"": 7718,
      "bank": 7719,
      "एडि": 7720,
      "टै": 7721,
      "पट": 7722,
      "पम्": 7723,
      "भरण": 7724,
      "हन्य": 7725,
      "विमुक्त": 7726,
      "staff": 7727,
      "न्दा": 7728,
      "ष्प": 7729,
      "ष्णि": 7730,
      "ghna": 7731,
      "savyas": 7732,
      "room": 7733,
      "दुर्ज": 7734,
      "sigh": 7735,
      "diseas": 7736,
      "seeking": 7737,
      "वर्तन्त": 7738,
      "necked": 7739,
      "woe": 7740,
      "added": 7741,
      "भ्रातरं": 7742,
      "भृत्य": 7743,
      "collected": 7744,
      "क्षेत्रे": 7745,
      "kindness": 7746,
      "restrain": 7747,
      "प्रेक्ष": 7748,
      "रावणस्य": 7749,
      "प्रकारेण": 7750,
      "चैवा": 7751,
      "circle": 7752,
      "continue": 7753,
      "विंशति": 7754,
      "sindhus": 7755,
      ":-": 7756,
      "vation": 7757,
      "चू": 7758,
      "विमान": 7759,
      "विदुः": 7760,
      "विचित्र": 7761,
      "विशिष्ट": 7762,
      "वाग्": 7763,
      "amoun": 7764,
      "कुलम्": 7765,
      "वेश्म": 7766,
      "cried": 7767,
      "हाः": 7768,
      "plun": 7769,
      "higher": 7770,
      "मृतं": 7771,
      "ब्धा": 7772,
      "nights": 7773,
      "preceptors": 7774,
      "difference": 7775,
      "depending": 7776,
      "sixty": 7777,
      "suffi": 7778,
      "लिखित": 7779,
      "भवद्भ्यः": 7780,
      "username": 7781,
      "201": 7782,
      "subdued": 7783,
      "prophe": 7784,
      "conchs": 7785,
      "editor": 7786,
      "required": 7787,
      "Sy": 7788,
      "bited": 7789,
      "buntu": 7790,
      "तनु": 7791,
      "तैर्": 7792,
      "ैरि": 7793,
      "esh": 7794,
      "seeds": 7795,
      "परवीर": 7796,
      "राजन्न": 7797,
      "स्वे": 7798,
      "cool": 7799,
      "pless": 7800,
      "यथाविधि": 7801,
      "kausal": 7802,
      "bowed": 7803,
      "पार्थः": 7804,
      "courses": 7805,
      "वर्षे": 7806,
      "धीरे": 7807,
      "\"\"\"\"\"\"\"\".\"\"\"\"\"\"\"": 7808,
      "mothers": 7809,
      "pale": 7810,
      "suppor": 7811,
      "परीक्षा": 7812,
      "entirely": 7813,
      "कदाचित्": 7814,
      "produce": 7815,
      "ranging": 7816,
      "temple": 7817,
      "सदृशं": 7818,
      "irresistible": 7819,
      "Ubuntu": 7820,
      "चान्य": 7821,
      "मरि": 7822,
      "whet": 7823,
      "माणं": 7824,
      "साथ": 7825,
      "दातुं": 7826,
      "सर्वदा": 7827,
      "ज्ञः": 7828,
      "सहे": 7829,
      "disease": 7830,
      "पुत्रान्": 7831,
      "त्मज": 7832,
      "ज्ञाति": 7833,
      "south": 7834,
      "प्राप्ते": 7835,
      "पश्ये": 7836,
      "निहत्य": 7837,
      "पन्ना": 7838,
      "enjoys": 7839,
      "पौर": 7840,
      "भारतस्य": 7841,
      "ordinances": 7842,
      "cheerfully": 7843,
      "tirthas": 7844,
      "conferred": 7845,
      "stupe": 7846,
      "trunk": 7847,
      "request": 7848,
      "intention": 7849,
      "किन्त्व": 7850,
      "deceit": 7851,
      "Sp": 7852,
      "bon": 7853,
      "brush": 7854,
      "cc": 7855,
      "तमो": 7856,
      "पेन": 7857,
      "फु": 7858,
      "infuri": 7859,
      "topi": 7860,
      "क्षर": 7861,
      "सुमह": 7862,
      "active": 7863,
      "mense": 7864,
      "परिष्व": 7865,
      "नीं": 7866,
      "हाथ": 7867,
      "paid": 7868,
      "मृदु": 7869,
      "bowing": 7870,
      "elders": 7871,
      "appearing": 7872,
      "intro": 7873,
      "वानस्मि": 7874,
      "वदन्ति": 7875,
      "प्रेत्य": 7876,
      "लिखन्तु": 7877,
      "oppressed": 7878,
      "गच्छामि": 7879,
      "measure": 7880,
      "इदानीम्": 7881,
      "whetted": 7882,
      "driver": 7883,
      "vable": 7884,
      "चरण": 7885,
      "बटन्": 7886,
      "भल्": 7887,
      "यन": 7888,
      "शता": 7889,
      "ऽहं": 7890,
      "seats": 7891,
      "प्रमत्त": 7892,
      "मासी": 7893,
      "fires": 7894,
      "मेरु": 7895,
      "कुला": 7896,
      "रेणा": 7897,
      "disappeared": 7898,
      "वृष्टि": 7899,
      "लिका": 7900,
      "immense": 7901,
      "कथम्": 7902,
      "कथितवान्": 7903,
      "grieved": 7904,
      "destroys": 7905,
      "दशग्रीव": 7906,
      "directed": 7907,
      "जीवा": 7908,
      "परस्पर": 7909,
      "पद्म": 7910,
      "green": 7911,
      "http": 7912,
      "confidence": 7913,
      "absence": 7914,
      "ek": 7915,
      "fow": 7916,
      "lun": 7917,
      "इमं": 7918,
      "मयं": 7919,
      "वर्म": 7920,
      "ैर्व": 7921,
      "often": 7922,
      "प्रसन्": 7923,
      "rajas": 7924,
      "spac": 7925,
      "द्रव": 7926,
      "dog": 7927,
      "स्वीय": 7928,
      "mill": 7929,
      "vices": 7930,
      "ण्डा": 7931,
      "चिनो": 7932,
      "प्सर": 7933,
      "ग्रही": 7934,
      "पितॄ": 7935,
      "married": 7936,
      "शीर्ष": 7937,
      "मुक्त्वा": 7938,
      "borne": 7939,
      "पोष": 7940,
      "द्रोणो": 7941,
      "दक्षिणा": 7942,
      "relate": 7943,
      "शुभं": 7944,
      "vāli": 7945,
      "क्रीडा": 7946,
      "चेतसः": 7947,
      "वार्ष्ण": 7948,
      "hini": 7949,
      "ict": 7950,
      "oking": 7951,
      "कन्स्": 7952,
      "तदेव": 7953,
      "नघ": 7954,
      "सचि": 7955,
      "सनम्": 7956,
      "नासि": 7957,
      "पादा": 7958,
      "मिवो": 7959,
      "spent": 7960,
      "द्धृ": 7961,
      "ज्ञां": 7962,
      "सहितो": 7963,
      "बाह": 7964,
      "dig": 7965,
      "handed": 7966,
      "mount": 7967,
      "preser": 7968,
      "utorial": 7969,
      "विधान": 7970,
      "जीवितं": 7971,
      "kşasas": 7972,
      "wake": 7973,
      "श्रेष्ठः": 7974,
      "fourteen": 7975,
      "\"\"\"\"\"\"\"\"\"\"\"\"\"\"\"": 7976,
      "लक्ष्मणं": 7977,
      "वीरौ": 7978,
      "विवरणानि": 7979,
      "प्रेषयामास": 7980,
      "हृदयं": 7981,
      "बीज": 7982,
      "vrishnis": 7983,
      "resolved": 7984,
      "सनातनः": 7985,
      "benefit": 7986,
      "weeping": 7987,
      "yam": 7988,
      "अपश्य": 7989,
      "डर्": 7990,
      "नभ": 7991,
      "रति": 7992,
      "वना": 7993,
      "ency": 7994,
      "environ": 7995,
      "माहवे": 7996,
      "वादी": 7997,
      "uncle": 7998,
      "भवं": 7999,
      "exten": 8000,
      "endra": 8001,
      "लोड्": 8002,
      "sia": 8003,
      "शाय": 8004,
      "नेक": 8005,
      "prish": 8006,
      "parame": 8007,
      "दीप्य": 8008,
      "कृतवन्तः": 8009,
      "ैर्बहु": 8010,
      "पितर": 8011,
      "जयद्रथ": 8012,
      "विषयं": 8013,
      "भवेद्": 8014,
      "निःश्व": 8015,
      "कृताञ्जलि": 8016,
      "यथे": 8017,
      "त्थं": 8018,
      "महातेजाः": 8019,
      "स्नात्वा": 8020,
      "sandal": 8021,
      "shrut": 8022,
      "ब्रेकेट्": 8023,
      "कन्स्ट्र": 8024,
      "Pro": 8025,
      "dress": 8026,
      "आदि": 8027,
      "एतेषां": 8028,
      "भयात्": 8029,
      "thread": 8030,
      "invisible": 8031,
      "envelo": 8032,
      "tile": 8033,
      "tide": 8034,
      "shine": 8035,
      "क्षयं": 8036,
      "नियम": 8037,
      "ources": 8038,
      "locks": 8039,
      "णाद्": 8040,
      "team": 8041,
      "ण्डी": 8042,
      "जायत": 8043,
      "केतु": 8044,
      "ब्रौ": 8045,
      "क्षिप्त": 8046,
      "mary": 8047,
      "प्रियम्": 8048,
      "guard": 8049,
      "भृगु": 8050,
      "पतितं": 8051,
      "yojanas": 8052,
      "jamad": 8053,
      "चैनं": 8054,
      "brilli": 8055,
      "celebrate": 8056,
      "patched": 8057,
      "pattern": 8058,
      "शोणित": 8059,
      "मिथ्या": 8060,
      "ङ्क्षन्": 8061,
      "previous": 8062,
      "तदनन्तरं": 8063,
      "Spoken": 8064,
      "bones": 8065,
      "hat": 8066,
      "ified": 8067,
      "pite": 8068,
      "yā": 8069,
      "आय": 8070,
      "इमानि": 8071,
      "चनं": 8072,
      "जै": 8073,
      "तदि": 8074,
      "म्या": 8075,
      "शनि": 8076,
      "atic": 8077,
      "associ": 8078,
      "प्रदान": 8079,
      "विचा": 8080,
      "क्षय": 8081,
      "निष्ठ": 8082,
      "acity": 8083,
      "द्रवत्": 8084,
      "भवम्": 8085,
      "lose": 8086,
      "rughna": 8087,
      "र्षी": 8088,
      "चिर": 8089,
      "हासं": 8090,
      "सम्बन्ध": 8091,
      "orns": 8092,
      "सूक्ष्म": 8093,
      "akas": 8094,
      "shel": 8095,
      "पतन्तं": 8096,
      "सर्वां": 8097,
      "वांश्च": 8098,
      "एवमुक्तस्तु": 8099,
      "modes": 8100,
      "twins": 8101,
      "बहूनि": 8102,
      "श्मश": 8103,
      "किमर्थं": 8104,
      "ख्रीष्टस्य": 8105,
      "features": 8106,
      "shooting": 8107,
      "rigid": 8108,
      "sanskrit": 8109,
      "stupefied": 8110,
      "bud": 8111,
      "email": 8112,
      "fond": 8113,
      "lower": 8114,
      "mud": 8115,
      "nara": 8116,
      "yes": 8117,
      "अतो": 8118,
      "प्रगृह्य": 8119,
      "forsa": 8120,
      "adatta": 8121,
      "र्ये": 8122,
      "व्यक्तं": 8123,
      "vasus": 8124,
      "रथः": 8125,
      "रथेन": 8126,
      "piety": 8127,
      "धर्मस्य": 8128,
      "lessness": 8129,
      "कर्तव्यं": 8130,
      "yog": 8131,
      "पाण्डवैः": 8132,
      "बुद्धिः": 8133,
      "भीमसेनं": 8134,
      "अधिकं": 8135,
      "एतच्छ": 8136,
      "considering": 8137,
      "स्तीति": 8138,
      "exertion": 8139,
      "kaurava": 8140,
      "malice": 8141,
      "disciple": 8142,
      "inferior": 8143,
      "ICT": 8144,
      "east": 8145,
      "fy": 8146,
      "gment": 8147,
      "uma": 8148,
      "चर्": 8149,
      "वधा": 8150,
      "ोत्त": 8151,
      "रामे": 8152,
      "स्तः": 8153,
      "ghost": 8154,
      "mahar": 8155,
      "निर्व": 8156,
      "निधनं": 8157,
      "administr": 8158,
      "commen": 8159,
      "conne": 8160,
      "simp": 8161,
      "दीन": 8162,
      "पुरुषं": 8163,
      "ctible": 8164,
      "happens": 8165,
      "showed": 8166,
      "शतश": 8167,
      "पृथिव्या": 8168,
      "प्रहसन्": 8169,
      "flames": 8170,
      "structure": 8171,
      "ayama": 8172,
      "प्रसन्न": 8173,
      "abstain": 8174,
      "विश्राम": 8175,
      "government": 8176,
      "advance": 8177,
      "phalguna": 8178,
      "ID": 8179,
      "fate": 8180,
      "ră": 8181,
      "sus": 8182,
      "अहो": 8183,
      "गह": 8184,
      "ज्वा": 8185,
      "दह": 8186,
      "सस्य": 8187,
      "inct": 8188,
      "refer": 8189,
      "shouts": 8190,
      "नाराच": 8191,
      "webs": 8192,
      "निधि": 8193,
      "docu": 8194,
      "ोऽभि": 8195,
      "गात्": 8196,
      "नों": 8197,
      "dign": 8198,
      "rāvaņa": 8199,
      "meditation": 8200,
      "भागं": 8201,
      "द्विजः": 8202,
      "dwellers": 8203,
      "months": 8204,
      "उदाह": 8205,
      "rākṣasas": 8206,
      "victorious": 8207,
      "connected": 8208,
      "kshetra": 8209,
      "टूल्": 8210,
      "website": 8211,
      "MP": 8212,
      "av": 8213,
      "ira": 8214,
      "slight": 8215,
      "wall": 8216,
      "जज्ञे": 8217,
      "हस्ति": 8218,
      "allow": 8219,
      "यात्रा": 8220,
      "काम्य": 8221,
      "मुहुः": 8222,
      "appreh": 8223,
      "मानव": 8224,
      "govinda": 8225,
      "cold": 8226,
      "plant": 8227,
      "ट्ट": 8228,
      "श्रुत": 8229,
      "ष्णी": 8230,
      "structed": 8231,
      "राक्षसः": 8232,
      "putting": 8233,
      "checked": 8234,
      "क्रुद्धा": 8235,
      "शृण्व": 8236,
      "dened": 8237,
      "हित्वा": 8238,
      "यथान्या": 8239,
      "बलात्": 8240,
      "interface": 8241,
      "silent": 8242,
      "video": 8243,
      "figure": 8244,
      "पुरातनम्": 8245,
      "ker": 8246,
      "वशे": 8247,
      "rer": 8248,
      "प्रशं": 8249,
      "madra": 8250,
      "यात": 8251,
      "unmanifest": 8252,
      "त्यक्त": 8253,
      "conver": 8254,
      "येद्": 8255,
      "cially": 8256,
      "ilt": 8257,
      "ज्ञात": 8258,
      "ज्ञातुं": 8259,
      "यिष्य": 8260,
      "ब्राह्मणे": 8261,
      "waited": 8262,
      "cursed": 8263,
      "पर्वत": 8264,
      "leaders": 8265,
      "पार्थिवः": 8266,
      "विद्ध्वा": 8267,
      "वृत्तिः": 8268,
      "changed": 8269,
      "nishad": 8270,
      "tremble": 8271,
      "planets": 8272,
      "माद्री": 8273,
      "public": 8274,
      "क्वेन्स्": 8275,
      "aneously": 8276,
      "कन्स्ट्रक्टर्": 8277,
      "hri": 8278,
      "ranger": 8279,
      "task": 8280,
      "नवी": 8281,
      "भग्": 8282,
      "रचित": 8283,
      "enhan": 8284,
      "argu": 8285,
      "arrange": 8286,
      "प्रभाव": 8287,
      "वाक्": 8288,
      "tigers": 8289,
      "deter": 8290,
      "क्षयम्": 8291,
      "ayu": 8292,
      "suyodhana": 8293,
      "संगी": 8294,
      "tax": 8295,
      "exper": 8296,
      "शासना": 8297,
      "येण": 8298,
      "harm": 8299,
      "लाभ": 8300,
      "देवताः": 8301,
      "ङ्गी": 8302,
      "clas": 8303,
      "सूदन": 8304,
      "stell": 8305,
      "जीवन": 8306,
      "damay": 8307,
      "signs": 8308,
      "dharmara": 8309,
      "vāmitra": 8310,
      "प्रययौ": 8311,
      "informed": 8312,
      "ordinance": 8313,
      "vamitra": 8314,
      "embodied": 8315,
      "amount": 8316,
      "Re": 8317,
      "fro": 8318,
      "kum": 8319,
      "इमां": 8320,
      "षन्": 8321,
      "ीत": 8322,
      "र्जा": 8323,
      "राश्च": 8324,
      "त्रयो": 8325,
      "ambro": 8326,
      "क्तः": 8327,
      "कुर्वा": 8328,
      "expect": 8329,
      "vaj": 8330,
      "प्राय": 8331,
      "willing": 8332,
      "चारु": 8333,
      "वर्त्त": 8334,
      "afterwards": 8335,
      "poses": 8336,
      "भुञ्ज": 8337,
      "तेनैव": 8338,
      "passions": 8339,
      "पुनरे": 8340,
      "worshipping": 8341,
      "इत्येव": 8342,
      "राज्ञां": 8343,
      "respected": 8344,
      "गमिष्यति": 8345,
      "subduer": 8346,
      "assumed": 8347,
      "प्रभृति": 8348,
      "dignity": 8349,
      "'.": 8350,
      "pta": 8351,
      "ration": 8352,
      "आत्मा": 8353,
      "छे": 8354,
      "जले": 8355,
      "ट्या": 8356,
      "रखें": 8357,
      "वत्य": 8358,
      "सतां": 8359,
      "ुभौ": 8360,
      "reap": 8361,
      "विजय": 8362,
      "वारि": 8363,
      "iding": 8364,
      "सुरे": 8365,
      "composed": 8366,
      "notes": 8367,
      "log": 8368,
      "सिन्ध": 8369,
      "धिक": 8370,
      "जातः": 8371,
      "atted": 8372,
      "parva": 8373,
      "मोहा": 8374,
      "समाप्त": 8375,
      "jayas": 8376,
      "charity": 8377,
      "महीपतिः": 8378,
      "cured": 8379,
      "continu": 8380,
      "कुर्यात्": 8381,
      "kākutstha": 8382,
      "antagon": 8383,
      "compile": 8384,
      "policy": 8385,
      "diseases": 8386,
      "damayanti": 8387,
      "Tutorial": 8388,
      "dy": 8389,
      "एतस्य": 8390,
      "मयो": 8391,
      "मर्द": 8392,
      "मनाः": 8393,
      "सित": 8394,
      "infinite": 8395,
      "lets": 8396,
      "stal": 8397,
      "स्तद": 8398,
      "roam": 8399,
      "mang": 8400,
      "तुल": 8401,
      "सर्वलोक": 8402,
      "vile": 8403,
      "इत्यस्मात्": 8404,
      "स्मिन्न": 8405,
      "dry": 8406,
      "प्राप्तः": 8407,
      "मनुत्तमम्": 8408,
      "म्बर": 8409,
      "अवलोक": 8410,
      "culture": 8411,
      "द्वितीय": 8412,
      "धूम": 8413,
      "perfectly": 8414,
      "embraced": 8415,
      "winged": 8416,
      "रुक्म": 8417,
      "ashvatthaman": 8418,
      "jews": 8419,
      "prishata": 8420,
      "jamadagni": 8421,
      "dharmaraja": 8422,
      "Ex": 8423,
      "ln": 8424,
      "sth": 8425,
      "ऊचुः": 8426,
      "कस्या": 8427,
      "जितेन्द्रि": 8428,
      "बं": 8429,
      "मतो": 8430,
      "यया": 8431,
      "यज्ञा": 8432,
      "ैरा": 8433,
      "स्योपरि": 8434,
      "sad": 8435,
      "निक": 8436,
      "iras": 8437,
      "काया": 8438,
      "संग": 8439,
      "मुद्र": 8440,
      "तुमर्हसि": 8441,
      "दुष्ट": 8442,
      "ज्ञो": 8443,
      "जावा": 8444,
      "seems": 8445,
      "rents": 8446,
      "ज्ञातवन्तः": 8447,
      "humil": 8448,
      "कर्मणः": 8449,
      "विधं": 8450,
      "राक्षसी": 8451,
      "charged": 8452,
      "जीवति": 8453,
      "हूय": 8454,
      "heavens": 8455,
      "ानेव": 8456,
      "विवर्ध": 8457,
      "निःस्व": 8458,
      "ष्यामः": 8459,
      "भद्रे": 8460,
      "रथिनां": 8461,
      "ignorant": 8462,
      "wrought": 8463,
      "pouring": 8464,
      "कुरूणां": 8465,
      "निशाच": 8466,
      "behove": 8467,
      "स्वच्छता": 8468,
      "अपरञ्च": 8469,
      "especially": 8470,
      "Li": 8471,
      "ctic": 8472,
      "gam": 8473,
      "mess": 8474,
      "धानं": 8475,
      "भग्न": 8476,
      "whir": 8477,
      "chaste": 8478,
      "काशि": 8479,
      "sumit": 8480,
      "पुरे": 8481,
      "सुदारु": 8482,
      "ably": 8483,
      "सर्वथा": 8484,
      "नुयात्": 8485,
      "ेष्य": 8486,
      "र्थी": 8487,
      "simult": 8488,
      "स्थे": 8489,
      "शिबि": 8490,
      "गच्छे": 8491,
      "bliss": 8492,
      "हीन": 8493,
      "र्जुनः": 8494,
      "चरन्": 8495,
      "helpless": 8496,
      "शितैः": 8497,
      "functions": 8498,
      "instruments": 8499,
      "depends": 8500,
      "consumed": 8501,
      "cherish": 8502,
      "secret": 8503,
      "multip": 8504,
      "ambrosia": 8505,
      "humility": 8506,
      "lab": 8507,
      "tex": 8508,
      "आत्मानं": 8509,
      "गजा": 8510,
      "गस्त्य": 8511,
      "रम्य": 8512,
      "वदामि": 8513,
      "reco": 8514,
      "lips": 8515,
      "ayas": 8516,
      "ident": 8517,
      "महाहवे": 8518,
      "तोप": 8519,
      "द्यः": 8520,
      "वेक्ष": 8521,
      "तीव्र": 8522,
      "भीमः": 8523,
      "लिए": 8524,
      "कोपि": 8525,
      "पुत्रौ": 8526,
      "इतीद": 8527,
      "varieg": 8528,
      "guest": 8529,
      "विदितं": 8530,
      "रावणो": 8531,
      "monarchs": 8532,
      "जानन्ति": 8533,
      "पाठेऽस्मिन्": 8534,
      "निश्चयः": 8535,
      "करणम्": 8536,
      "लक्षण": 8537,
      "promised": 8538,
      "belongs": 8539,
      "कुशलं": 8540,
      "ogle": 8541,
      "प्रमाणं": 8542,
      "remains": 8543,
      "combatants": 8544,
      "circumstances": 8545,
      "rejoic": 8546,
      "इन्स्टा": 8547,
      "baffled": 8548,
      "variegated": 8549,
      "Ko": 8550,
      "eving": 8551,
      "lords": 8552,
      "paste": 8553,
      "धं": 8554,
      "मद्": 8555,
      "यत्रा": 8556,
      "लङ्क": 8557,
      "वरो": 8558,
      "वाकि": 8559,
      "shout": 8560,
      "मेन्यू": 8561,
      "conce": 8562,
      "द्रवन्": 8563,
      "game": 8564,
      "स्थः": 8565,
      "परिवार": 8566,
      "शुश्रु": 8567,
      "रीय": 8568,
      "गुरो": 8569,
      "गुणो": 8570,
      "सीक्वेन्स्": 8571,
      "served": 8572,
      "पित्रा": 8573,
      "श्ल": 8574,
      "पुनरेव": 8575,
      "panel": 8576,
      "शेते": 8577,
      "प्रोवाच": 8578,
      "समीपं": 8579,
      "दुर्लभ": 8580,
      "hyā": 8581,
      "depressed": 8582,
      "नगरे": 8583,
      "occur": 8584,
      "ख्यां": 8585,
      "silver": 8586,
      "trembling": 8587,
      "determined": 8588,
      "shelter": 8589,
      ":/": 8590,
      "dash": 8591,
      "deri": 8592,
      "fury": 8593,
      "jer": 8594,
      "lance": 8595,
      "आदेश": 8596,
      "पय": 8597,
      "वारण": 8598,
      "नाभ्य": 8599,
      "पाता": 8600,
      "सुहृद": 8601,
      "युर्": 8602,
      "न्यवेद": 8603,
      "वीराः": 8604,
      "faul": 8605,
      "गाङ्ग": 8606,
      "दृष्टा": 8607,
      "प्रियः": 8608,
      "व्रतः": 8609,
      "honours": 8610,
      "occup": 8611,
      "शुभम्": 8612,
      "devoid": 8613,
      "बहवः": 8614,
      "consume": 8615,
      "advancing": 8616,
      "streams": 8617,
      "srinjayas": 8618,
      "soft": 8619,
      "स्वयमेव": 8620,
      "fronta": 8621,
      "messen": 8622,
      "Koha": 8623,
      "भक्ष्य": 8624,
      "शस्य": 8625,
      "सने": 8626,
      "हन्ति": 8627,
      "िय": 8628,
      "sex": 8629,
      "seasons": 8630,
      "ितवन्तः": 8631,
      "विहाय": 8632,
      "स्यन्द": 8633,
      "दाहर": 8634,
      "manage": 8635,
      "मुच्य": 8636,
      "ami": 8637,
      "aco": 8638,
      "रिपु": 8639,
      "sim": 8640,
      "ोऽब्रवीत्": 8641,
      "cardin": 8642,
      "उपयोगं": 8643,
      "ञ्जय": 8644,
      "युद्धा": 8645,
      "indrajit": 8646,
      "बुद्धिं": 8647,
      "तृती": 8648,
      "पर्यु": 8649,
      "मन्त्र्य": 8650,
      "ब्राह्मणानां": 8651,
      "बुध": 8652,
      "कानिचन": 8653,
      "श्रूयते": 8654,
      "leness": 8655,
      "compassion": 8656,
      "feather": 8657,
      "ancestors": 8658,
      "relax": 8659,
      "cardinal": 8660,
      "bhu": 8661,
      "glo": 8662,
      "एकः": 8663,
      "चान": 8664,
      "भविष": 8665,
      "यन्न": 8666,
      "ोर्": 8667,
      "enough": 8668,
      "तिथ": 8669,
      "chant": 8670,
      "chitra": 8671,
      "निरु": 8672,
      "परान्": 8673,
      "कृष्ट": 8674,
      "कृच्छ्र": 8675,
      "युतं": 8676,
      "भवती": 8677,
      "ability": 8678,
      "perpe": 8679,
      "क्रे": 8680,
      "श्रम": 8681,
      "peaco": 8682,
      "धिका": 8683,
      "ोऽभ्य": 8684,
      "स्तेऽ": 8685,
      "gandharva": 8686,
      "एषः": 8687,
      "blessings": 8688,
      "vishvamitra": 8689,
      "जीवि": 8690,
      "फ़ैल्": 8691,
      "यीशुः": 8692,
      "कृष्णं": 8693,
      "gadatta": 8694,
      "र्वेद": 8695,
      "residence": 8696,
      "inhabited": 8697,
      "परित्यज्य": 8698,
      "riders": 8699,
      "viśvāmitra": 8700,
      "चिनोतु": 8701,
      "sumitrā": 8702,
      "perpetr": 8703,
      "bending": 8704,
      "dance": 8705,
      "fed": 8706,
      "tes": 8707,
      "wal": 8708,
      "गरु": 8709,
      "पन": 8710,
      "पथि": 8711,
      "हन्ता": 8712,
      "atory": 8713,
      "ितस्य": 8714,
      "cease": 8715,
      "limit": 8716,
      "ung": 8717,
      "rod": 8718,
      "ket": 8719,
      "मुहुर्": 8720,
      "utes": 8721,
      "constell": 8722,
      "भावा": 8723,
      "cide": 8724,
      "ग्रतः": 8725,
      "चेक्": 8726,
      "oriz": 8727,
      "ानुवाच": 8728,
      "यन्निव": 8729,
      "property": 8730,
      "numberless": 8731,
      "सैन्यानि": 8732,
      "वारयन्": 8733,
      "frame": 8734,
      "succeeded": 8735,
      "छात्र": 8736,
      "सात्यकिः": 8737,
      "श्छि": 8738,
      "लोचनः": 8739,
      "ceremonies": 8740,
      "reverence": 8741,
      "vibhī": 8742,
      "prajap": 8743,
      "ब्रौसर्": 8744,
      "ball": 8745,
      "cree": 8746,
      "hit": 8747,
      "अरे": 8748,
      "अस्या": 8749,
      "जहि": 8750,
      "जानु": 8751,
      "थो": 8752,
      "बै": 8753,
      "वेन": 8754,
      "leap": 8755,
      "मासीत्": 8756,
      "पुण्ड": 8757,
      "नुदामि": 8758,
      "मानवाः": 8759,
      "prove": 8760,
      "जातं": 8761,
      "itya": 8762,
      "design": 8763,
      "hosp": 8764,
      "bore": 8765,
      "शुष्": 8766,
      "मोघ": 8767,
      "ैर्बाण": 8768,
      "praised": 8769,
      "ञ्ज्": 8770,
      "प्रियाः": 8771,
      "guide": 8772,
      "म्बो": 8773,
      "दृश्यत": 8774,
      "bhagadatta": 8775,
      "भविष्यद्वा": 8776,
      "ranged": 8777,
      "growing": 8778,
      "ध्रुवं": 8779,
      "judge": 8780,
      "settings": 8781,
      "उदाहर": 8782,
      "smilingly": 8783,
      "chitrasena": 8784,
      "://": 8785,
      "ktop": 8786,
      "pari": 8787,
      "rating": 8788,
      "यन्तो": 8789,
      "लान्": 8790,
      "हताः": 8791,
      "anga": 8792,
      "स्ट्": 8793,
      "पाश": 8794,
      "fie": 8795,
      "quite": 8796,
      "peter": 8797,
      "धातु": 8798,
      "चिक्षेप": 8799,
      "somadatta": 8800,
      "blew": 8801,
      "paired": 8802,
      "prime": 8803,
      "pleasing": 8804,
      "wherever": 8805,
      "दुःशास": 8806,
      "शूराः": 8807,
      "yellow": 8808,
      "निर्दिष्ट": 8809,
      "वीर्यं": 8810,
      "गुणान्": 8811,
      "enjoyed": 8812,
      "finished": 8813,
      "senseless": 8814,
      "मुत्सृज्य": 8815,
      "instructions": 8816,
      "petals": 8817,
      "masses": 8818,
      "विकल्पं": 8819,
      "equipped": 8820,
      "package": 8821,
      "ama": 8822,
      "eves": 8823,
      "vris": 8824,
      "भानु": 8825,
      "मर्": 8826,
      "विच": 8827,
      "devas": 8828,
      "vehe": 8829,
      "मुष्टि": 8830,
      "uring": 8831,
      "soil": 8832,
      "सर्वेषा": 8833,
      "शाम्य": 8834,
      "ोऽनु": 8835,
      "वृष्णि": 8836,
      "seeks": 8837,
      "vasishtha": 8838,
      "ान्तरं": 8839,
      "paka": 8840,
      "पेतु": 8841,
      "umn": 8842,
      "षाः": 8843,
      "वानराः": 8844,
      "गोविन्द": 8845,
      "दिवौक": 8846,
      "dwelling": 8847,
      "वृकोदरः": 8848,
      "साक्षात्": 8849,
      "garden": 8850,
      "obedient": 8851,
      "title": 8852,
      "şaņa": 8853,
      "eman": 8854,
      "mask": 8855,
      "āna": 8856,
      "चन्द": 8857,
      "तान्य": 8858,
      "लन्": 8859,
      "ीयते": 8860,
      "reen": 8861,
      "sti": 8862,
      "ravas": 8863,
      "radi": 8864,
      "वासं": 8865,
      "स्यसे": 8866,
      "depart": 8867,
      "sakra": 8868,
      "कात्": 8869,
      "सारेण": 8870,
      "compar": 8871,
      "solar": 8872,
      "conve": 8873,
      "र्थो": 8874,
      "शारी": 8875,
      "स्थां": 8876,
      "oppos": 8877,
      "इत्यस्मिन्": 8878,
      "diade": 8879,
      "shapes": 8880,
      "preach": 8881,
      "troub": 8882,
      "thila": 8883,
      "हृदि": 8884,
      "त्याः": 8885,
      "क्रियतां": 8886,
      "maternal": 8887,
      "daksh": 8888,
      "दक्षिणं": 8889,
      "लुब्ध": 8890,
      "कपिः": 8891,
      "including": 8892,
      "पुण्या": 8893,
      "empty": 8894,
      "स्नेह": 8895,
      "shraddha": 8896,
      "opportunity": 8897,
      "dish": 8898,
      "wed": 8899,
      "अन्ति": 8900,
      "ट्य": 8901,
      "दमः": 8902,
      "भां": 8903,
      "सग": 8904,
      "almost": 8905,
      "stretched": 8906,
      "राद्": 8907,
      "mem": 8908,
      "mere": 8909,
      "द्भि": 8910,
      "परन्तु": 8911,
      "संका": 8912,
      "संक्रुद्धो": 8913,
      "ष्टु": 8914,
      "युवा": 8915,
      "योप": 8916,
      "सहिताः": 8917,
      "pras": 8918,
      "canvas": 8919,
      "special": 8920,
      "पश्यन्": 8921,
      "रक्षसां": 8922,
      "पाठा": 8923,
      "दुर्योधनं": 8924,
      "फ़ील्ड्": 8925,
      "banner": 8926,
      "script": 8927,
      "ब्रुव": 8928,
      "grown": 8929,
      "vanquish": 8930,
      "गृह्णी": 8931,
      "जग्मुः": 8932,
      "penetrated": 8933,
      "brāhmaṇas": 8934,
      "activity": 8935,
      "infantry": 8936,
      "enveloped": 8937,
      "ञ्ज्महे": 8938,
      "Ed": 8939,
      "jum": 8940,
      "pā": 8941,
      "अन्तः": 8942,
      "कव": 8943,
      "जनो": 8944,
      "तव्यं": 8945,
      "धैर्य": 8946,
      "यमान": 8947,
      "ययाति": 8948,
      "eral": 8949,
      "प्रमुख": 8950,
      "rob": 8951,
      "advers": 8952,
      "excess": 8953,
      "मानवः": 8954,
      "logy": 8955,
      "शिष्टा": 8956,
      "समाश्र": 8957,
      "प्राप्तवन्तः": 8958,
      "skanda": 8959,
      "दत्ता": 8960,
      "returning": 8961,
      "chiefs": 8962,
      "receiving": 8963,
      "श्वासं": 8964,
      "पश्चाद्": 8965,
      "शैने": 8966,
      "वधं": 8967,
      "द्रष्टु": 8968,
      "copper": 8969,
      "आगत्य": 8970,
      "vultures": 8971,
      "lifted": 8972,
      "simultaneously": 8973,
      "faults": 8974,
      "khara": 8975,
      "ys": 8976,
      "अनि": 8977,
      "आसन्": 8978,
      "जित्वा": 8979,
      "दाना": 8980,
      "ानन्तरं": 8981,
      "श्चे": 8982,
      "साकं": 8983,
      "युवां": 8984,
      "र्तु": 8985,
      "uproar": 8986,
      "रों": 8987,
      "रिक": 8988,
      "भूते": 8989,
      "शाला": 8990,
      "बार्": 8991,
      "कोर्स्": 8992,
      "plu": 8993,
      "मध्या": 8994,
      "risen": 8995,
      "शीविष": 8996,
      "clicking": 8997,
      "चिन्तयन्": 8998,
      "built": 8999,
      "कर्श": 9000,
      "श्वेत": 9001,
      "caste": 9002,
      "कच्चित्": 9003,
      "भ्रातरः": 9004,
      "behavi": 9005,
      "ayodhyā": 9006,
      "परवीरहा": 9007,
      "Fr": 9008,
      "io": 9009,
      "oil": 9010,
      "tus": 9011,
      "आचार्य": 9012,
      "उच्च": 9013,
      "णम": 9014,
      "दर": 9015,
      "पश्चि": 9016,
      "मती": 9017,
      "यर्": 9018,
      "lean": 9019,
      "विराज": 9020,
      "स्तै": 9021,
      "स्पे": 9022,
      "forts": 9023,
      "मेषु": 9024,
      "संवाद": 9025,
      "manager": 9026,
      "युयुध": 9027,
      "योधा": 9028,
      "expand": 9029,
      "सर्वान": 9030,
      "श्रमं": 9031,
      "मान्त": 9032,
      "शाप": 9033,
      "शाखा": 9034,
      "शिशु": 9035,
      "हंस": 9036,
      "नृपति": 9037,
      "दुःशासन": 9038,
      "तथे": 9039,
      "repent": 9040,
      "अन्योन्य": 9041,
      "terrified": 9042,
      "भीमसेनो": 9043,
      "स्थापयेत": 9044,
      "दिवसे": 9045,
      "marked": 9046,
      "results": 9047,
      "ैर्यु": 9048,
      "flag": 9049,
      "अनेक": 9050,
      "fingers": 9051,
      "sports": 9052,
      "समृद्ध": 9053,
      "gha": 9054,
      "अपेक्ष": 9055,
      "इदम": 9056,
      "ओर": 9057,
      "जटा": 9058,
      "लता": 9059,
      "वक्र": 9060,
      "सव": 9061,
      "हरी": 9062,
      "ौष": 9063,
      "beat": 9064,
      "ome": 9065,
      "द्द": 9066,
      "काष्ठ": 9067,
      "परमां": 9068,
      "संवि": 9069,
      "spake": 9070,
      "contra": 9071,
      "lakes": 9072,
      "हिरण्य": 9073,
      "किञ्चि": 9074,
      "shoulders": 9075,
      "हार्": 9076,
      "ब्रह्मच": 9077,
      "कुर्व्व": 9078,
      "penance": 9079,
      "tremend": 9080,
      "purposes": 9081,
      "कालस्य": 9082,
      "चित्रे": 9083,
      "sumes": 9084,
      "टिङ्ग्": 9085,
      "beside": 9086,
      "flowing": 9087,
      "अस्यां": 9088,
      "originate": 9089,
      "संनिभ": 9090,
      "folded": 9091,
      "गृह्ण": 9092,
      "शब्देन": 9093,
      "संस्कृत": 9094,
      "decrep": 9095,
      "विद्वान्": 9096,
      "jaras": 9097,
      "village": 9098,
      "exhausted": 9099,
      "burden": 9100,
      "निषेव": 9101,
      "bread": 9102,
      "pd": 9103,
      "आसी": 9104,
      "चर्म": 9105,
      "धर": 9106,
      "यैः": 9107,
      "ende": 9108,
      "asle": 9109,
      "aster": 9110,
      "ानो": 9111,
      "प्रदीप्त": 9112,
      "विज्ञान": 9113,
      "नाद्": 9114,
      "savit": 9115,
      "पाक": 9116,
      "idity": 9117,
      "संस": 9118,
      "पिब": 9119,
      "worn": 9120,
      "सर्व्वा": 9121,
      "ङ्के": 9122,
      "श्रद्धा": 9123,
      "समनु": 9124,
      "नोद": 9125,
      "कोटि": 9126,
      "पुत्रे": 9127,
      "मित्यु": 9128,
      "auto": 9129,
      "गच्छत्": 9130,
      "hereafter": 9131,
      "मूर्ति": 9132,
      "lightness": 9133,
      "कर्मणि": 9134,
      "सौबल": 9135,
      "योगेन": 9136,
      "विषयान्": 9137,
      "ब्राह्मणं": 9138,
      "प्रीतो": 9139,
      "scion": 9140,
      "भावेन": 9141,
      "शब्दं": 9142,
      "भविष्यसि": 9143,
      "वाहनः": 9144,
      "repeat": 9145,
      "आगच्छन्तु": 9146,
      "crying": 9147,
      "drive": 9148,
      "species": 9149,
      "organis": 9150,
      "corner": 9151,
      "axes": 9152,
      "crossed": 9153,
      "physical": 9154,
      "सव्यसाचि": 9155,
      "लङ्कां": 9156,
      "cd": 9157,
      "dva": 9158,
      "ral": 9159,
      "कांश्च": 9160,
      "जङ्ग": 9161,
      "नमा": 9162,
      "हस्ता": 9163,
      "index": 9164,
      "reasons": 9165,
      "arise": 9166,
      "विगत": 9167,
      "deb": 9168,
      "members": 9169,
      "कारः": 9170,
      "श्चित्र": 9171,
      "मेन्यु": 9172,
      "संस्था": 9173,
      "दाता": 9174,
      "कुलो": 9175,
      "जाग": 9176,
      "शार": 9177,
      "पूजा": 9178,
      "format": 9179,
      "स्माभिः": 9180,
      "medit": 9181,
      "पुनश्च": 9182,
      "himavat": 9183,
      "falls": 9184,
      "showing": 9185,
      "द्रौपदे": 9186,
      "males": 9187,
      "eaten": 9188,
      "लैन्": 9189,
      "status": 9190,
      "separated": 9191,
      "bestowed": 9192,
      "परित्रा": 9193,
      "गदया": 9194,
      "सरस्वती": 9195,
      "fatigue": 9196,
      "sauti": 9197,
      "extremely": 9198,
      "tremendous": 9199,
      "jarasandha": 9200,
      "asleep": 9201,
      "ME": 9202,
      "ww": 9203,
      "एतद": 9204,
      "एतेषु": 9205,
      "कश्य": 9206,
      "कोऽपि": 9207,
      "गन्त": 9208,
      "पत्रि": 9209,
      "मतं": 9210,
      "मतां": 9211,
      "anks": 9212,
      "प्रहर": 9213,
      "न्त्या": 9214,
      "magn": 9215,
      "निम्": 9216,
      "काश्य": 9217,
      "मिश्र": 9218,
      "सुराः": 9219,
      "भवनं": 9220,
      "स्वेन": 9221,
      "र्येण": 9222,
      "वीर्या": 9223,
      "चारी": 9224,
      "परिच": 9225,
      "cave": 9226,
      "शिरः": 9227,
      "देवस्य": 9228,
      "पेण": 9229,
      "regular": 9230,
      "गच्छन्": 9231,
      "किंचन": 9232,
      "trad": 9233,
      "शरान्": 9234,
      "possession": 9235,
      "धृति": 9236,
      "भवेत": 9237,
      "puru": 9238,
      "तिष्ठन्ति": 9239,
      "ख्यातं": 9240,
      "reply": 9241,
      "सिंहा": 9242,
      "original": 9243,
      "जनाधिप": 9244,
      "पृष्ठे": 9245,
      "sleeping": 9246,
      "organs": 9247,
      "println": 9248,
      "डेटा": 9249,
      "मुद्राप": 9250,
      "flame": 9251,
      "15": 9252,
      "खण्ड": 9253,
      "नानां": 9254,
      "सक": 9255,
      "ेना": 9256,
      "ैर्म": 9257,
      "र्ट्": 9258,
      "तिथि": 9259,
      "मेति": 9260,
      "दिना": 9261,
      "fulness": 9262,
      "pear": 9263,
      "herd": 9264,
      "proc": 9265,
      "signi": 9266,
      "परिवार्य": 9267,
      "died": 9268,
      "कथितं": 9269,
      "destitute": 9270,
      "reading": 9271,
      "element": 9272,
      "purand": 9273,
      "तेजस्वी": 9274,
      "bhur": 9275,
      "वारयत्": 9276,
      "सम्यक": 9277,
      "meanwhile": 9278,
      "हस्तौ": 9279,
      "hairs": 9280,
      "juice": 9281,
      "वाहिनीम्": 9282,
      "require": 9283,
      "issued": 9284,
      "embracing": 9285,
      "चरेत्": 9286,
      "restrained": 9287,
      "connection": 9288,
      "frontaccounting": 9289,
      "simple": 9290,
      "aka": 9291,
      "bhis": 9292,
      "lom": 9293,
      "ml": 9294,
      "nose": 9295,
      "rat": 9296,
      "आदौ": 9297,
      "ज़": 9298,
      "फ्": 9299,
      "लैः": 9300,
      "वशं": 9301,
      "repaired": 9302,
      "tood": 9303,
      "विवा": 9304,
      "licity": 9305,
      "पुटे": 9306,
      "odes": 9307,
      "ष्टिं": 9308,
      "moves": 9309,
      "yourselves": 9310,
      "त्वत्त": 9311,
      "धारा": 9312,
      "disregarding": 9313,
      "सेवा": 9314,
      "gimp": 9315,
      "सम्प्रेक्ष्य": 9316,
      "कथयामास": 9317,
      "ols": 9318,
      "sorry": 9319,
      "टेब्": 9320,
      "चक्रमे": 9321,
      "enjoying": 9322,
      "approved": 9323,
      "लक्षणम्": 9324,
      "saluting": 9325,
      "सायकैः": 9326,
      "अधिकविवर": 9327,
      "driven": 9328,
      "वादिनः": 9329,
      "कण्ट": 9330,
      "मूर्धनि": 9331,
      "vaishya": 9332,
      "camp": 9333,
      "perceive": 9334,
      "understood": 9335,
      "रश्मि": 9336,
      "New": 9337,
      "erect": 9338,
      "gree": 9339,
      "horiz": 9340,
      "iment": 9341,
      "इत्थं": 9342,
      "एतेन": 9343,
      "गां": 9344,
      "गणाः": 9345,
      "भयो": 9346,
      "ैष": 9347,
      "atsu": 9348,
      "माणो": 9349,
      "rap": 9350,
      "heed": 9351,
      "rocks": 9352,
      "मेने": 9353,
      "संरक्ष": 9354,
      "songs": 9355,
      "मुन": 9356,
      "comput": 9357,
      "युव": 9358,
      "सर्वस्य": 9359,
      "भावं": 9360,
      "भास्क": 9361,
      "च्छया": 9362,
      "दुन्दु": 9363,
      "रिवा": 9364,
      "द्वन्": 9365,
      "ञ्चन": 9366,
      "plus": 9367,
      "pil": 9368,
      "चित्राणि": 9369,
      "tical": 9370,
      "keyboard": 9371,
      "स्त्वर": 9372,
      "happen": 9373,
      "surya": 9374,
      "विदां": 9375,
      "नरर्षभ": 9376,
      "विक्रम": 9377,
      "यज्ञे": 9378,
      "विधिवत्": 9379,
      "fragrant": 9380,
      "धृतराष्ट्रस्य": 9381,
      "thirty": 9382,
      "शिखण्डी": 9383,
      "modest": 9384,
      "exclaim": 9385,
      "accomplishments": 9386,
      "decay": 9387,
      "स्तूर्णं": 9388,
      "रोचते": 9389,
      "nectar": 9390,
      "ड्रोप्": 9391,
      "ubs": 9392,
      "vity": 9393,
      "west": 9394,
      "आरु": 9395,
      "तमः": 9396,
      "तमं": 9397,
      "ननाद": 9398,
      "सान्": 9399,
      "ैरु": 9400,
      "aling": 9401,
      "मार्ज": 9402,
      "स्ताः": 9403,
      "shattered": 9404,
      "महत्व": 9405,
      "तुम्": 9406,
      "त्तर": 9407,
      "ज्ञया": 9408,
      "लाग्": 9409,
      "core": 9410,
      "स्मी": 9411,
      "यिष्यन्ति": 9412,
      "shell": 9413,
      "मुखो": 9414,
      "पार्थस्य": 9415,
      "समुद्": 9416,
      "valu": 9417,
      "तस्माद": 9418,
      "stopped": 9419,
      "सोऽहं": 9420,
      "सहस्रेण": 9421,
      "until": 9422,
      "संशयं": 9423,
      "एवमुक्तः": 9424,
      "र्थाय": 9425,
      "austere": 9426,
      "granted": 9427,
      "mahendra": 9428,
      "grew": 9429,
      "धृष्टद्युम्न": 9430,
      "गच्छामः": 9431,
      "immortals": 9432,
      "त्रैलोक्य": 9433,
      "dancing": 9434,
      "language": 9435,
      "brahmacharya": 9436,
      "sufficient": 9437,
      "Library": 9438,
      "hr": 9439,
      "kit": 9440,
      "kali": 9441,
      "matted": 9442,
      "जला": 9443,
      "तप्य": 9444,
      "नहु": 9445,
      "हन्तुं": 9446,
      "ैषि": 9447,
      "……": 9448,
      "्यस्य": 9449,
      "ानेन": 9450,
      "राम्": 9451,
      "\"\"\"\"\"\"\"'": 9452,
      "mansion": 9453,
      "र्तुं": 9454,
      "dose": 9455,
      "स्वस्थ": 9456,
      "तोष": 9457,
      "च्छसि": 9458,
      "ज्जा": 9459,
      "समभि": 9460,
      "viş": 9461,
      "वृथा": 9462,
      "श्यति": 9463,
      "counci": 9464,
      "पार्थेन": 9465,
      "ञ्जन": 9466,
      "क्ष्यन्ति": 9467,
      "charge": 9468,
      "winds": 9469,
      "विदित्वा": 9470,
      "screen": 9471,
      "पन्थ": 9472,
      "completed": 9473,
      "कौरवा": 9474,
      "loudly": 9475,
      "च्चापि": 9476,
      "भर्तृ": 9477,
      "छिन्न": 9478,
      "fishes": 9479,
      "कण्डी": 9480,
      "usalem": 9481,
      "parents": 9482,
      "स्ट्रि": 9483,
      "document": 9484,
      "यथान्यायं": 9485,
      "jerusalem": 9486,
      "prajapati": 9487,
      "Front": 9488,
      "dare": 9489,
      "ices": 9490,
      "जनं": 9491,
      "तरु": 9492,
      "दह्य": 9493,
      "पान्": 9494,
      "यदे": 9495,
      "वधे": 9496,
      "instead": 9497,
      "reward": 9498,
      "orous": 9499,
      "प्रच": 9500,
      "प्रवर्तते": 9501,
      "मातरं": 9502,
      "निघ्न": 9503,
      "irre": 9504,
      "परमो": 9505,
      "दाशा": 9506,
      "मुमोच": 9507,
      "essence": 9508,
      "कृष": 9509,
      "herds": 9510,
      "वीक्ष्य": 9511,
      "नोत्": 9512,
      "sini": 9513,
      "भोज्य": 9514,
      "पश्यतः": 9515,
      "नृपा": 9516,
      "पतित": 9517,
      "जिरे": 9518,
      "ध्वे": 9519,
      "र्जुनं": 9520,
      "नरश्रेष्ठ": 9521,
      "चरितं": 9522,
      "मितिहासं": 9523,
      "शक्त्या": 9524,
      "धनुर्": 9525,
      "प्रविष्ट": 9526,
      "भीष्मो": 9527,
      "arrival": 9528,
      "muscles": 9529,
      "चक्षुषा": 9530,
      "किरीटि": 9531,
      "बृहस्पति": 9532,
      "निरीक्ष": 9533,
      "cleansed": 9534,
      "material": 9535,
      "hang": 9536,
      "इन्द्रिया": 9537,
      "कन्यां": 9538,
      "नक्षत्र": 9539,
      "षम्": 9540,
      "स्रा": 9541,
      "”.": 9542,
      "विः": 9543,
      "haka": 9544,
      "raising": 9545,
      "height": 9546,
      "decor": 9547,
      "निवे": 9548,
      "robb": 9549,
      "मिको": 9550,
      "tage": 9551,
      "मुह्य": 9552,
      "कृत्त": 9553,
      "कृष्य": 9554,
      "वैदेह": 9555,
      "ग्रहं": 9556,
      "गुणाः": 9557,
      "ilities": 9558,
      "agri": 9559,
      "practic": 9560,
      "कुरुनन्दन": 9561,
      "purged": 9562,
      "व्रता": 9563,
      "protects": 9564,
      "प्रेम": 9565,
      "दृश्यन्त": 9566,
      "wishing": 9567,
      "नैष": 9568,
      "विधिना": 9569,
      "घ्नु": 9570,
      "उद्घट": 9571,
      "पृथ्व": 9572,
      "centre": 9573,
      "ददामि": 9574,
      "crown": 9575,
      "मिच्छति": 9576,
      "वाहिनी": 9577,
      "delivered": 9578,
      "कृत्स्नं": 9579,
      "washed": 9580,
      "सौमित्रि": 9581,
      "swiftly": 9582,
      "fifth": 9583,
      "शुश्रूष": 9584,
      "सार्द्धं": 9585,
      "routed": 9586,
      "plunged": 9587,
      "एतच्छ्रुत्वा": 9588,
      "mangled": 9589,
      "purandara": 9590,
      "क्या": 9591,
      "कित्": 9592,
      "तदानीं": 9593,
      "मन्तं": 9594,
      "inap": 9595,
      "\"\"\"\"\"\"": 9596,
      "प्रकल्": 9597,
      "beget": 9598,
      "विदो": 9599,
      "chana": 9600,
      "न्तरे": 9601,
      "नादं": 9602,
      "संकाश": 9603,
      "spr": 9604,
      "conci": 9605,
      "भिषि": 9606,
      "राज्या": 9607,
      "local": 9608,
      "login": 9609,
      "र्यः": 9610,
      "र्मम": 9611,
      "रेखा": 9612,
      "भूद्": 9613,
      "स्थाना": 9614,
      "distingu": 9615,
      "बाहू": 9616,
      "रूढ": 9617,
      "ङ्गो": 9618,
      "ashta": 9619,
      "typing": 9620,
      "yudhana": 9621,
      "stands": 9622,
      "सौति": 9623,
      "सौभद्र": 9624,
      "मनसि": 9625,
      "द्वारं": 9626,
      "...": 9627,
      "भ्रात्रा": 9628,
      "रामी": 9629,
      "surpr": 9630,
      "yee": 9631,
      "शृणो": 9632,
      "च्छाद": 9633,
      "न्तीम": 9634,
      "कस्यचित्": 9635,
      "भीष्मस्य": 9636,
      "leads": 9637,
      "भारतीय": 9638,
      "शब्दः": 9639,
      "रांश्च": 9640,
      "conversation": 9641,
      "doubts": 9642,
      "yuyudhana": 9643,
      "भक्ति": 9644,
      "firmly": 9645,
      "throwing": 9646,
      "हिंसा": 9647,
      "powered": 9648,
      "sindhu": 9649,
      "villages": 9650,
      "knees": 9651,
      ":॥": 9652,
      "bend": 9653,
      "bond": 9654,
      "danda": 9655,
      "tled": 9656,
      "wine": 9657,
      "अन्ते": 9658,
      "खं": 9659,
      "जस्य": 9660,
      "यानां": 9661,
      "यान्त": 9662,
      "anya": 9663,
      "behalf": 9664,
[...]
